{
  "##華": 30468,
  "stanford": 8422,
  "capable": 5214,
  "ladies": 6456,
  "##an": 2319,
  "installing": 23658,
  "east": 2264,
  "darcy": 17685,
  "gubernatorial": 19100,
  "x": 1060,
  "##inus": 13429,
  "hesitation": 13431,
  "[unused150]": 155,
  "##−1": 27944,
  "emmy": 10096,
  "##fies": 14213,
  "utilizing": 16911,
  "##using": 18161,
  "[unused124]": 129,
  "##work": 6198,
  "β": 1156,
  "letting": 5599,
  "beverley": 29057,
  "altar": 9216,
  "minogue": 27736,
  "ministry": 3757,
  "##ray": 9447,
  "km²": 3186,
  "property": 3200,
  "tunic": 23002,
  "sant": 15548,
  "fbi": 8495,
  "dat": 23755,
  "centimetres": 13935,
  "rated": 6758,
  "nudged": 18666,
  "sheep": 8351,
  "##rated": 9250,
  "permanent": 4568,
  "wicked": 10433,
  "launches": 18989,
  "bandits": 19088,
  "stroll": 27244,
  "appealing": 16004,
  "magnitude": 10194,
  "faults": 19399,
  "scenarios": 16820,
  "schumacher": 22253,
  "edition": 3179,
  "occupation": 6139,
  "##ool": 13669,
  "##dier": 24612,
  "£10": 26812,
  "##wyl": 27740,
  "[unused981]": 986,
  "quincy": 16141,
  "ya": 8038,
  "homer": 11525,
  "convicts": 24948,
  "fused": 19660,
  "գ": 1221,
  "subgroup": 20576,
  "cretaceous": 18122,
  "disgusted": 17733,
  "give": 2507,
  "##nging": 22373,
  "dominant": 7444,
  "ordered": 3641,
  "inwardly": 28710,
  "clasped": 16763,
  "brat": 28557,
  "##icative": 25184,
  "sharif": 20351,
  "quaker": 18844,
  "amused": 11770,
  "carthage": 21959,
  "nicholson": 16955,
  "platt": 28005,
  "expanded": 4423,
  "pendleton": 24349,
  "[unused437]": 442,
  "manor": 6952,
  "nam": 15125,
  "health": 2740,
  "##ulates": 18969,
  "infrastructure": 6502,
  "camel": 19130,
  "refuses": 10220,
  "ventura": 21151,
  "hon": 10189,
  "pyrenees": 22696,
  "[unused490]": 495,
  "additions": 13134,
  "##adt": 18727,
  "bathing": 17573,
  "262": 21950,
  "##pire": 20781,
  "##ron": 4948,
  "เ": 1423,
  "tilt": 17010,
  "clash": 13249,
  "encircled": 25759,
  "dawn": 6440,
  "##ر": 17149,
  "hem": 19610,
  "fights": 9590,
  "##mah": 25687,
  "drains": 18916,
  "ট": 1359,
  "residing": 7154,
  "ア": 1693,
  "barber": 13362,
  "helmets": 22674,
  "##ind": 22254,
  "terminology": 18444,
  "zurich": 10204,
  "extract": 14817,
  "grimaced": 19014,
  "promotions": 15365,
  "cyprus": 9719,
  "ho": 7570,
  "##oss": 15094,
  "bart": 12075,
  "leash": 26834,
  "##rew": 15603,
  "smell": 5437,
  "edmond": 21773,
  "thousands": 5190,
  "##cles": 18954,
  "cameroon": 13841,
  "lauren": 10294,
  "civilian": 6831,
  "##music": 27275,
  "consider": 5136,
  "##page": 13704,
  "protest": 6186,
  "basal": 15191,
  "##word": 18351,
  "honneur": 28197,
  "trucks": 9322,
  "ruins": 8435,
  "brennan": 13962,
  "netball": 25034,
  "inadvertently": 21089,
  "sterile": 25403,
  "gave": 2435,
  "ras": 20710,
  "score": 3556,
  "upscale": 28276,
  "##iol": 20282,
  "rode": 8469,
  "lynch": 11404,
  "∆": 1594,
  "freedom": 4071,
  "wrestling": 4843,
  "wage": 11897,
  "[unused12]": 13,
  "##小": 30355,
  "backseat": 19978,
  "place": 2173,
  "counterparts": 14562,
  "stranger": 7985,
  "osborn": 26999,
  "##י": 29796,
  "##ien": 9013,
  "careful": 6176,
  "constituencies": 13315,
  "sofie": 26359,
  "##jn": 22895,
  "gi": 21025,
  "foliage": 19624,
  "allegheny": 21192,
  "player": 2447,
  "unnatural": 21242,
  "chair": 3242,
  "birch": 16421,
  "finale": 9599,
  "burmese": 14468,
  "registering": 25719,
  "horses": 5194,
  "populations": 7080,
  "https": 16770,
  "remainder": 6893,
  "##ira": 7895,
  "instructional": 23219,
  "anal": 20302,
  "ε": 1159,
  "[unused828]": 833,
  "waving": 12015,
  "##iance": 28335,
  "hanoi": 24809,
  "[unused955]": 960,
  "duchess": 11017,
  "kind": 2785,
  "compose": 17202,
  "hanover": 14393,
  "policemen": 19809,
  "taiwan": 6629,
  "renaming": 24944,
  "generals": 11593,
  "unison": 18732,
  "gruff": 27038,
  "explicitly": 12045,
  "bryant": 12471,
  "djs": 23837,
  "robbins": 18091,
  "jayne": 24408,
  "congregation": 7769,
  "##ones": 21821,
  "picked": 3856,
  "adviser": 11747,
  "grasses": 21620,
  "dislike": 18959,
  "##isson": 24077,
  "nathan": 7150,
  "outstanding": 5151,
  "##ल": 29870,
  "stuffed": 11812,
  "##bat": 14479,
  "az": 17207,
  "##ades": 18673,
  "cox": 9574,
  "majority": 3484,
  "[unused62]": 63,
  "embarrassment": 14325,
  "##ped": 5669,
  "mangrove": 29340,
  "prominently": 14500,
  "relies": 16803,
  "borrowing": 23733,
  "corners": 8413,
  "hussain": 20093,
  "##rian": 6862,
  "includes": 2950,
  "toast": 15174,
  "lid": 11876,
  "decrees": 28966,
  "deacon": 14845,
  "submissions": 27842,
  "multiplayer": 17762,
  "[unused622]": 627,
  "##lins": 24412,
  "entertainer": 21751,
  "technicians": 20202,
  "elections": 3864,
  "##st": 3367,
  "pursed": 21954,
  "##udence": 29424,
  "lee": 3389,
  "profession": 9518,
  "screwing": 29082,
  "smiled": 3281,
  "presence": 3739,
  "chateau": 11874,
  "clarkson": 18648,
  "##nsky": 25655,
  "raked": 22438,
  "cockpit": 13828,
  "##15": 16068,
  "gemma": 19073,
  "liberty": 7044,
  "leadership": 4105,
  "##rac": 22648,
  "cameo": 12081,
  "##inatory": 28230,
  "stirred": 13551,
  "complain": 17612,
  "credited": 5827,
  "quinn": 8804,
  "sykes": 23531,
  "ो": 1343,
  "steaming": 19986,
  "dynasty": 5321,
  "dispose": 27764,
  "streams": 9199,
  "continual": 27222,
  "ava": 10927,
  "crows": 21623,
  "quantitative": 20155,
  "rogue": 12406,
  "[unused654]": 659,
  "brian": 4422,
  "traversed": 27797,
  "rebirth": 22785,
  "##bau": 27773,
  "coven": 25248,
  "model": 2944,
  "broker": 20138,
  "winds": 7266,
  "lax": 27327,
  "dwellings": 16707,
  "mad": 5506,
  "ɲ": 1123,
  "witnesses": 9390,
  "mistress": 10414,
  "pepper": 11565,
  "excavated": 15199,
  "anybody": 10334,
  "overheard": 20443,
  "1796": 13885,
  "monsieur": 21380,
  "wetland": 22217,
  "##nce": 5897,
  "62": 5786,
  "economically": 15318,
  "defects": 18419,
  "##“": 30058,
  "##ddy": 14968,
  "remained": 2815,
  "shatter": 27271,
  "takeover": 15336,
  "captains": 15755,
  "fleming": 13779,
  "shoot": 5607,
  "cafe": 7668,
  "raven": 10000,
  "stabilized": 27697,
  "harm": 7386,
  "buffy": 18467,
  "casper": 24602,
  "##ichi": 11319,
  "archaeological": 7611,
  "[unused639]": 644,
  "picks": 11214,
  "ד": 1244,
  "##ink": 19839,
  "curses": 23897,
  "hill": 2940,
  "humanoid": 28051,
  "view": 3193,
  "¼": 1091,
  "recorded": 2680,
  "brought": 2716,
  "dupont": 22848,
  "races": 3837,
  "131": 14677,
  "limitations": 12546,
  "[unused460]": 465,
  "##stan": 12693,
  "distinguishing": 20852,
  "clearly": 4415,
  "migration": 9230,
  "gripping": 13940,
  "##pres": 28994,
  "harmed": 25596,
  "ᅥ": 1472,
  "advanced": 3935,
  "sullivan": 7624,
  "173": 19410,
  "##66": 28756,
  "[unused476]": 481,
  "verb": 12034,
  "perimeter": 13443,
  "favorable": 11119,
  "ム": 1725,
  "hartley": 20955,
  "inaugurated": 11070,
  "icelandic": 14024,
  "##voking": 22776,
  "treatise": 15326,
  "surgery": 5970,
  "blinked": 7948,
  "haired": 10681,
  "⅔": 1582,
  "portray": 17279,
  "bn": 24869,
  "excited": 7568,
  "oxygen": 7722,
  "speech": 4613,
  "excitedly": 23885,
  "ᵢ": 1507,
  "1749": 24704,
  "cornish": 17797,
  "essays": 8927,
  "[unused845]": 850,
  "##used": 13901,
  "peers": 12746,
  "rs": 12667,
  "'": 1005,
  "##ל": 29799,
  "gillespie": 21067,
  "[unused576]": 581,
  "##ར": 29970,
  "##arians": 28369,
  "grassy": 22221,
  "##也": 30276,
  "##sis": 6190,
  "saliva": 26308,
  "satellite": 5871,
  "endless": 10866,
  "nightmare": 10103,
  "computing": 9798,
  "husbands": 19089,
  "lange": 21395,
  "sgt": 17001,
  "soviet": 3354,
  "##ж": 29743,
  "alfred": 6152,
  "##健": 30294,
  "trips": 9109,
  "##oca": 24755,
  "spends": 15970,
  "213": 19883,
  "roosevelt": 8573,
  "abortion": 11324,
  "##lto": 23223,
  "industry": 3068,
  "estonia": 10692,
  "##∅": 30121,
  "##」": 30168,
  "chuckled": 10252,
  "[unused766]": 771,
  "heading": 5825,
  "nigel": 12829,
  "wept": 24966,
  "propeller": 15692,
  "##ose": 9232,
  "sane": 22856,
  "fronted": 23291,
  "##gible": 18507,
  "marie": 5032,
  "##'": 29618,
  "any": 2151,
  "campaigned": 16196,
  "olivia": 7710,
  "teaching": 4252,
  "dexter": 14375,
  "ibn": 7839,
  "bard": 22759,
  "sep": 19802,
  "championships": 3219,
  "gs": 28177,
  "yemen": 13968,
  "announced": 2623,
  "##uil": 19231,
  "specializes": 16997,
  "pomeranian": 17717,
  "ত": 1362,
  "bullock": 25200,
  "imitation": 20017,
  "itf": 27682,
  "##cen": 27524,
  "childhood": 5593,
  "bullshit": 14636,
  "lopez": 8685,
  "femme": 26893,
  "##nd": 4859,
  "telling": 4129,
  "rammed": 27653,
  "##ce": 3401,
  "##tra": 6494,
  "##rio": 9488,
  "##ᄏ": 30002,
  "outta": 24955,
  "portfolio": 11103,
  "##issa": 21205,
  "gasps": 23813,
  "ʑ": 1137,
  "paint": 6773,
  "##itate": 17570,
  "heavenly": 16581,
  "##unk": 16814,
  "arlington": 13929,
  "mori": 22993,
  "##明": 30391,
  "##tters": 24168,
  "anyway": 4312,
  "arbitrary": 15275,
  "managed": 3266,
  "oblique": 20658,
  "pains": 20398,
  "initiated": 7531,
  "acceleration": 16264,
  "porsche": 16099,
  "bra": 11655,
  "proposals": 10340,
  "urdu": 12454,
  "##eros": 27360,
  "chesterfield": 22699,
  "contributed": 5201,
  "centre": 2803,
  "ʾ": 1147,
  "docks": 15093,
  "doctrines": 23252,
  "[unused671]": 676,
  "wine": 4511,
  "[unused424]": 429,
  "ussr": 10331,
  "##urse": 28393,
  "plural": 13994,
  "prove": 6011,
  "orchards": 22976,
  "clothes": 4253,
  "subsidies": 21762,
  "idol": 10282,
  "officer": 2961,
  "##ᴺ": 30030,
  "piper": 11939,
  "##uously": 28078,
  "departments": 7640,
  "senior": 3026,
  "given": 2445,
  "clubs": 4184,
  "wynn": 25328,
  "spraying": 29035,
  "embryo": 28086,
  "skeleton": 13526,
  "##zzo": 12036,
  "##ela": 10581,
  "budgets": 26178,
  "ubiquitous": 28498,
  "landscaping": 28404,
  "archers": 23118,
  "committee": 2837,
  "##ail": 12502,
  "riches": 26768,
  "consultants": 22283,
  "##listic": 27348,
  "##\"": 29613,
  "[unused797]": 802,
  "system": 2291,
  "fashionable": 19964,
  "uniquely": 20640,
  "351": 28474,
  "##و": 29836,
  "resulting": 4525,
  "298": 27240,
  "feet": 2519,
  "maclean": 22528,
  "[unused438]": 443,
  "[unused89]": 90,
  "bath": 7198,
  "530": 23523,
  "##ries": 5134,
  "scroll": 17186,
  "monthly": 7058,
  "##上": 30268,
  "bologna": 14102,
  "combinations": 14930,
  "##liest": 21292,
  "unsure": 12422,
  "wed": 21981,
  "quivering": 26012,
  "[unused66]": 67,
  "manuscripts": 10485,
  "arrests": 17615,
  "rodeo": 18936,
  "¨": 1074,
  "##tique": 28437,
  "##cu": 10841,
  "relieve": 15804,
  "overwhelming": 10827,
  "vascular": 21449,
  "##anta": 26802,
  "sings": 10955,
  "martyrs": 18945,
  "##ɣ": 29683,
  "vance": 16672,
  "unseen": 16100,
  "replica": 15059,
  "remembrance": 19451,
  "##eed": 13089,
  "publishing": 4640,
  "sectors": 11105,
  "executives": 12706,
  "disappearance": 13406,
  "オ": 1699,
  "angelo": 12262,
  "kobayashi": 28930,
  "[unused294]": 299,
  "finance": 5446,
  "clutches": 29497,
  "pamphlet": 19899,
  "honoured": 15546,
  "yards": 4210,
  "drafts": 28967,
  "##you": 29337,
  "evidence": 3350,
  "gospel": 8036,
  "modern": 2715,
  "ambush": 15283,
  "onion": 20949,
  "scanned": 11728,
  "alias": 14593,
  "takahashi": 25585,
  "inspect": 22459,
  "feud": 13552,
  "feminism": 20050,
  "garlic": 20548,
  "manhattan": 7128,
  "bazaar": 22774,
  "aleppo": 22973,
  "##州": 30362,
  "220": 10545,
  "gorilla": 23526,
  "assessing": 20077,
  "christopher": 5696,
  "ragged": 14202,
  "layers": 9014,
  "##我": 30381,
  "##ttal": 28200,
  "greenfield": 26713,
  "slept": 7771,
  "##iza": 21335,
  "federer": 28294,
  "luce": 19913,
  "[unused449]": 454,
  "darryl": 22821,
  "##via": 9035,
  "audio": 5746,
  "hollow": 8892,
  "urbana": 27929,
  "1927": 4764,
  "sc": 8040,
  "„": 1525,
  "afb": 16909,
  "regional": 3164,
  "##ᆨ": 30020,
  "##zyn": 23749,
  "hello": 7592,
  "##ᅢ": 30007,
  "graduation": 7665,
  "brigadier": 9900,
  "towing": 28379,
  "brothel": 27308,
  "swimming": 5742,
  "finite": 10713,
  "perry": 6890,
  "zen": 16729,
  "refreshing": 27150,
  "fairies": 20182,
  "qualify": 7515,
  "##lce": 23314,
  "michigan": 4174,
  "##ete": 12870,
  "dungeon": 16633,
  "氷": 1895,
  "vito": 25550,
  "jean": 3744,
  "↑": 1584,
  "monsoon": 19183,
  "herr": 23506,
  "##ler": 3917,
  "upward": 10745,
  "inter": 6970,
  "##test": 22199,
  "durga": 28746,
  "183": 18677,
  "rests": 16626,
  "encouragement": 15846,
  "stalking": 20070,
  "hard": 2524,
  "subterranean": 28811,
  "contend": 27481,
  "##ˢ": 29717,
  "hermitage": 24708,
  "##mour": 20360,
  "exodus": 16388,
  "transmitting": 23820,
  "gunfire": 16978,
  "125": 8732,
  "alive": 4142,
  "mounds": 19503,
  "##gist": 24063,
  "1833": 11040,
  "botany": 17018,
  "neat": 15708,
  "41": 4601,
  "violate": 23640,
  "##with": 24415,
  "greene": 11006,
  "##sts": 12837,
  "dagger": 10794,
  "astronaut": 19748,
  "hiram": 27410,
  "erected": 7019,
  "erin": 11781,
  "##les": 4244,
  "##ually": 28488,
  "##sive": 12742,
  "##lva": 22144,
  "disguised": 17330,
  "definition": 6210,
  "##oche": 23555,
  "##aran": 20486,
  "digest": 17886,
  "amir": 18904,
  "##cytes": 27321,
  "##than": 21604,
  "enduring": 16762,
  "doubtful": 21888,
  "##titled": 21309,
  "lecturer": 9162,
  "drone": 18465,
  "twelfth": 11313,
  "niall": 21889,
  "wrestlers": 14039,
  "doyle": 11294,
  "spin": 6714,
  "bjorn": 24998,
  "adopt": 11092,
  "machinery": 10394,
  "attempting": 7161,
  "flirt": 27978,
  "it": 2009,
  "reflects": 11138,
  "##writer": 15994,
  "consumers": 10390,
  "manfred": 19149,
  "success": 3112,
  "##rogated": 26565,
  "oracle": 14721,
  "drummond": 19266,
  "##verse": 16070,
  "exchange": 3863,
  "kilometre": 13214,
  "[unused922]": 927,
  "?": 1029,
  "bricks": 14219,
  "hair": 2606,
  "##+": 29622,
  "amassed": 22151,
  "##ist": 2923,
  "wiring": 27930,
  "##mable": 24088,
  "ked": 16135,
  "pierced": 16276,
  "watt": 15231,
  "mineral": 9754,
  "obsessed": 15896,
  "jimi": 27624,
  "roy": 6060,
  "##西": 30473,
  "crops": 8765,
  "vice": 3580,
  "##no": 3630,
  "severity": 18976,
  "suddenly": 3402,
  "##z": 2480,
  "stepmother": 26959,
  "amy": 6864,
  "relocate": 20102,
  "banished": 21319,
  "introduce": 8970,
  "buffet": 28305,
  "creations": 20677,
  "northern": 2642,
  "##iko": 12676,
  "相": 1919,
  "impatiently": 19951,
  "darwin": 11534,
  "encounters": 11340,
  "competed": 3879,
  "xiao": 19523,
  "checked": 7039,
  "fossil": 10725,
  "##ret": 13465,
  "downstream": 13248,
  "mayhem": 26865,
  "landscape": 5957,
  "侍": 1765,
  "every": 2296,
  "everybody": 7955,
  "##ulata": 18060,
  "tolkien": 23602,
  "##風": 30503,
  "stopped": 3030,
  "supervise": 28589,
  "syed": 19740,
  "rises": 9466,
  "1940": 3878,
  "controversies": 25962,
  "kota": 23856,
  "rector": 10935,
  "##tablished": 28146,
  "[unused938]": 943,
  "neuroscience": 23700,
  "milling": 22491,
  "focused": 4208,
  "pressures": 15399,
  "##iji": 27821,
  "pillars": 13766,
  "subway": 10798,
  "regency": 15647,
  "##ult": 11314,
  "portsmouth": 10913,
  "qin": 19781,
  "clifton": 16271,
  "tenderly": 26596,
  "##я": 17432,
  "authored": 8786,
  "ী": 1380,
  "outstretched": 21059,
  "wrist": 7223,
  "rocket": 7596,
  "microscopic": 26396,
  "[unused704]": 709,
  "morse": 17107,
  "##cheng": 21043,
  "grandson": 7631,
  "marvel": 8348,
  "##oteric": 29112,
  "corner": 3420,
  "unusual": 5866,
  "des": 4078,
  "mecklenburg": 22007,
  "sincerely": 25664,
  "namely": 8419,
  "billionaire": 22301,
  "vinyl": 8877,
  "overtime": 12253,
  "##lier": 14355,
  "##lga": 27887,
  "gloucestershire": 15905,
  "residences": 14094,
  "material": 3430,
  "started": 2318,
  "tightening": 18711,
  "invasive": 17503,
  "susquehanna": 26361,
  "northwards": 27592,
  "vessel": 6258,
  "weeds": 20777,
  "[unused272]": 277,
  "juliette": 24696,
  "##sner": 20479,
  "##g": 2290,
  "saga": 12312,
  "##ti": 3775,
  "brien": 9848,
  "cozy": 26931,
  "·": 1087,
  "criticism": 6256,
  "waterfalls": 24236,
  "[unused104]": 109,
  "##ই": 29885,
  "[unused405]": 410,
  "totaling": 21798,
  "ग": 1317,
  "awaited": 19605,
  "##shot": 19040,
  "justification": 19777,
  "horizontally": 23190,
  "briefly": 4780,
  "edna": 21051,
  "nephew": 7833,
  "[unused787]": 792,
  "msc": 23794,
  "tattoo": 11660,
  "cylindrical": 18797,
  "thrill": 16959,
  "clenched": 8555,
  "axle": 17290,
  "transaction": 12598,
  "frowned": 7335,
  "bubbles": 17255,
  "documentary": 4516,
  "apartment": 4545,
  "immigrated": 17352,
  "[unused200]": 205,
  "##tting": 13027,
  "##df": 20952,
  "crimea": 21516,
  "mac": 6097,
  "##oides": 25064,
  "medical": 2966,
  "##lette": 27901,
  "disappeared": 5419,
  "radcliffe": 22603,
  "housemates": 28152,
  "matthew": 5487,
  "northeastern": 8763,
  "cuisine": 12846,
  "also": 2036,
  "gardner": 11764,
  "##κ": 29726,
  "excel": 24970,
  "##ago": 23692,
  "##uh": 27225,
  "descendants": 8481,
  "nineteenth": 9137,
  "##ppa": 13944,
  "##furt": 24428,
  "##ament": 24996,
  "ike": 25209,
  "##正": 30414,
  "vietnam": 5148,
  "##olt": 27914,
  "canopy": 14582,
  "scripted": 22892,
  "##ft": 6199,
  "secular": 10644,
  "##vate": 16952,
  "hand": 2192,
  "eta": 27859,
  "parochial": 28773,
  "##gt": 13512,
  "##rosis": 29166,
  "est": 9765,
  "[unused508]": 513,
  "header": 20346,
  "##ே": 29934,
  "directly": 3495,
  "loaf": 27048,
  "##ex": 10288,
  "religion": 4676,
  "average": 2779,
  "psycho": 18224,
  "##ا": 25573,
  "shielding": 25553,
  "indiana": 5242,
  "kathy": 14986,
  "##村": 30404,
  "##ml": 19968,
  "transfer": 4651,
  "playoffs": 7555,
  "expeditionary": 15372,
  "[unused514]": 519,
  "pronunciation": 15498,
  "incense": 28647,
  "ghz": 29066,
  "tierney": 26198,
  "southward": 22161,
  "marshal": 8610,
  "hell": 3109,
  "##ional": 19301,
  "ripple": 24644,
  "unknown": 4242,
  "macy": 20914,
  "##っ": 30189,
  "habitat": 6552,
  "shooters": 28310,
  "##talk": 28014,
  "galactic": 21375,
  "##iae": 19001,
  "campos": 26925,
  "influencing": 25870,
  "websites": 11744,
  "stainless": 18676,
  "centro": 18120,
  "java": 9262,
  "##ony": 16585,
  "france": 2605,
  "lev": 23310,
  "narrowing": 21978,
  "mature": 9677,
  "siena": 23754,
  "##ko": 3683,
  "[unused870]": 875,
  "##ᄃ": 29993,
  "wreath": 29586,
  "sausage": 24165,
  "henan": 27837,
  "mega": 13164,
  "americas": 10925,
  "coughing": 21454,
  "quezon": 26564,
  "martinique": 29365,
  "scrambling": 25240,
  "tequila": 26791,
  "municipality": 3250,
  "baird": 20866,
  "wiggled": 26750,
  "testified": 14914,
  "coupling": 19780,
  "[unused300]": 305,
  "sabres": 26969,
  "ए": 1314,
  "exposition": 13080,
  "##tray": 28473,
  "mainz": 19876,
  "crying": 6933,
  "forwards": 19390,
  "including": 2164,
  "technically": 10892,
  "lowland": 15234,
  "##nsen": 29428,
  "availability": 11343,
  "gm": 13938,
  "hess": 23484,
  "##xt": 18413,
  "diary": 9708,
  "hunger": 9012,
  "brink": 20911,
  "nuts": 12264,
  "।": 1344,
  "assignment": 8775,
  "expired": 13735,
  "senator": 5205,
  "spit": 13183,
  "careless": 23358,
  "imagining": 16603,
  "##nia": 6200,
  "##anum": 27975,
  "straight": 3442,
  "##ffer": 12494,
  "[unused278]": 283,
  "1758": 16832,
  "##ken": 7520,
  "demolition": 12451,
  "braves": 13980,
  "##mbs": 29232,
  "manufacturers": 8712,
  "programmes": 8497,
  "dukes": 16606,
  "predominant": 21047,
  "theologians": 29013,
  "uncredited": 8104,
  "mainly": 3701,
  "homework": 19453,
  "##ifying": 11787,
  "foreigner": 29524,
  "##fly": 14151,
  "metres": 3620,
  "asserted": 13647,
  "fades": 26784,
  "sparks": 12300,
  "conner": 17639,
  "thumbs": 16784,
  "compliant": 24577,
  "drunk": 7144,
  "joking": 16644,
  "considerably": 9839,
  "vi": 6819,
  "fuck": 6616,
  "wars": 5233,
  "sensors": 13907,
  "montpellier": 28153,
  "initials": 20381,
  "##ulus": 11627,
  "catalogue": 10161,
  "##nbc": 28957,
  "##hre": 28362,
  "catholicism": 16138,
  "supermarket": 17006,
  "molly": 9618,
  "precisely": 10785,
  "lombard": 23441,
  "##wr": 13088,
  "##rran": 28327,
  "exponential": 27258,
  "##lani": 21141,
  "expressive": 22570,
  "preliminary": 8824,
  "[unused615]": 620,
  "banda": 24112,
  "topped": 9370,
  "ming": 11861,
  "curb": 13730,
  "sentences": 11746,
  "truman": 15237,
  "director": 2472,
  "##ifier": 18095,
  "malice": 28238,
  "counted": 8897,
  "##》": 30166,
  "study": 2817,
  "commune": 5715,
  "sustainable": 9084,
  "ambitious": 12479,
  "##lio": 12798,
  "bergen": 12674,
  "shirts": 11344,
  "1732": 27582,
  "[unused33]": 34,
  "থ": 1363,
  "[unused749]": 754,
  "##kumar": 18494,
  "interception": 17385,
  "anniversary": 5315,
  "vernon": 11447,
  "infringement": 20701,
  "##nya": 17238,
  "wonderful": 6919,
  "skater": 18815,
  "traditional": 3151,
  "guo": 22720,
  "oakland": 9182,
  "pets": 18551,
  "ᅵ": 1483,
  "violence": 4808,
  "thou": 15223,
  "murderous": 25303,
  "curtis": 9195,
  "平": 1839,
  "[unused338]": 343,
  "##འ": 29969,
  "devi": 14386,
  "overcoming": 27363,
  "ordinance": 16692,
  "lamps": 14186,
  "##sław": 23305,
  "echo": 9052,
  "merit": 7857,
  "intimate": 10305,
  "nodded": 3368,
  "unopposed": 17123,
  "depleted": 22595,
  "deepened": 20183,
  "mortimer": 17416,
  "##lling": 13112,
  "mw": 12464,
  "textual": 25304,
  "establish": 5323,
  "##mada": 23574,
  "##ac": 6305,
  "admission": 9634,
  "##gui": 25698,
  "complexes": 15420,
  "poultry": 22468,
  "block": 3796,
  "brings": 7545,
  "yield": 10750,
  "locomotive": 8098,
  "gerald": 9659,
  "##eer": 11510,
  "⁄": 1535,
  "waldo": 28806,
  "ammonia": 25874,
  "##phon": 20846,
  "mendes": 27916,
  "##bered": 22408,
  "contractors": 16728,
  "sweetness": 23210,
  "audible": 19525,
  "scored": 3195,
  "stole": 10312,
  "centred": 16441,
  "##ws": 9333,
  "delays": 14350,
  "##64": 21084,
  "madeira": 27309,
  "enriched": 25202,
  "dalai": 28511,
  "##lang": 25023,
  "rattle": 23114,
  "fastened": 24009,
  "##mit": 22930,
  "##cape": 19464,
  "un": 4895,
  "##hon": 8747,
  "##riders": 28116,
  "regis": 20588,
  "victories": 9248,
  "##⁺": 12744,
  "mafia": 13897,
  "##ossa": 21842,
  "brunette": 27261,
  "nassau": 14646,
  "##us": 2271,
  "jul": 21650,
  "fours": 23817,
  "alien": 7344,
  "qi": 18816,
  "secretaries": 23660,
  "##sume": 23545,
  "##mento": 23065,
  "##truct": 18300,
  "##bain": 29148,
  "##∂": 30120,
  "##│": 30143,
  "mayo": 14415,
  "jaguar": 16490,
  "julia": 6423,
  "demetrius": 28367,
  "foreword": 23059,
  "piercing": 14628,
  "movements": 5750,
  "houses": 3506,
  "gerry": 14926,
  "hooves": 28399,
  "dead": 2757,
  "clifford": 13894,
  "maximilian": 18838,
  "##lia": 6632,
  "amateur": 5515,
  "√": 1600,
  "armor": 8177,
  "feldman": 26908,
  "celeste": 21113,
  "##auer": 21126,
  "fragment": 15778,
  "##rable": 16670,
  "lydia": 14076,
  "baroness": 21479,
  "[unused107]": 112,
  "most": 2087,
  "feral": 18993,
  "shamrock": 28782,
  "##bet": 20915,
  "accommodated": 28959,
  "obviously": 5525,
  "appearance": 3311,
  "##ciation": 23247,
  "officials": 4584,
  "hebrew": 6836,
  "advantage": 5056,
  "##0s": 16223,
  "slices": 25609,
  "guardians": 14240,
  "rise": 4125,
  "collaborative": 12317,
  "ah": 6289,
  "demonic": 23170,
  "328": 25256,
  "methodist": 8938,
  "starboard": 25211,
  "volatile": 20606,
  "十": 1783,
  "participating": 8019,
  "monde": 23117,
  "wigan": 15598,
  "biking": 28899,
  "generalized": 18960,
  "sound": 2614,
  "1839": 10011,
  "viruses": 18191,
  "##uda": 14066,
  "divinity": 16968,
  "##ز": 29823,
  "alert": 9499,
  "guardian": 6697,
  "invited": 4778,
  "benson": 11999,
  "device": 5080,
  "##tre": 7913,
  "kg": 4705,
  "apologies": 25380,
  "##dant": 28210,
  "##icum": 22167,
  "nipple": 14298,
  "alma": 11346,
  "haven": 4033,
  "oct": 13323,
  "1778": 16331,
  "antennas": 26315,
  "##rent": 22787,
  "kensington": 17775,
  "pilgrimage": 14741,
  "nana": 17810,
  "原": 1787,
  "##rified": 22618,
  "appointments": 14651,
  "priests": 8656,
  "salvador": 10582,
  "forehead": 6130,
  "⟨": 1629,
  "##sf": 22747,
  "stairs": 5108,
  "##ciency": 29125,
  "south": 2148,
  "kochi": 27603,
  "##44": 22932,
  "##mare": 24376,
  "likes": 7777,
  "##cturing": 19159,
  "adele": 17623,
  "ರ": 1401,
  "1941": 3874,
  "office": 2436,
  "##dm": 22117,
  "vin": 19354,
  "continuum": 22961,
  "hail": 16889,
  "signifies": 27353,
  "prohibited": 10890,
  "whenever": 7188,
  "nolan": 13401,
  "##raphy": 26228,
  "☉": 1622,
  "1858": 8517,
  "flowed": 13230,
  "liga": 8018,
  "##ᴰ": 30028,
  "signing": 6608,
  "masterpiece": 17743,
  "reconciliation": 16088,
  "martial": 7761,
  "lore": 19544,
  "problematic": 18636,
  "selective": 13228,
  "roles": 4395,
  "hopeless": 20625,
  "electrical": 5992,
  "22nd": 13816,
  "napoleon": 8891,
  "condor": 29260,
  "lorenzo": 12484,
  "warrant": 10943,
  "teddy": 11389,
  "recalled": 7383,
  "becca": 22140,
  "##eb": 15878,
  "steve": 3889,
  "lines": 3210,
  "periodic": 15861,
  "sparse": 20288,
  "layne": 22452,
  "clients": 7846,
  "views": 5328,
  "licensed": 7000,
  "##atin": 20363,
  "##pressive": 27484,
  "carpets": 27997,
  "publication": 4772,
  "crusade": 16282,
  "hornet": 26795,
  "argue": 7475,
  "##ulo": 18845,
  "upcoming": 9046,
  "donnelly": 28317,
  "flinched": 19201,
  "191": 19871,
  "browning": 18778,
  "civilization": 10585,
  "project": 2622,
  "cheated": 22673,
  "##emia": 17577,
  "improve": 5335,
  "##the": 10760,
  "##turn": 22299,
  "##x": 2595,
  "austria": 5118,
  "reggae": 15662,
  "furiously": 20322,
  "windshield": 19521,
  "jesus": 4441,
  "chalmers": 29069,
  "410": 19151,
  "fraud": 9861,
  "vertices": 18984,
  "syrian": 9042,
  "##holder": 14528,
  "1679": 27924,
  "aboard": 7548,
  "trout": 13452,
  "stiffly": 27499,
  "sheikh": 12840,
  "suspended": 6731,
  "differ": 11234,
  "tournaments": 8504,
  "aarhus": 29173,
  "curves": 10543,
  "##shida": 25541,
  "mock": 12934,
  "[unused402]": 407,
  "honored": 8686,
  "be": 2022,
  "##nier": 14862,
  "informant": 28694,
  "##aging": 16594,
  "##pts": 22798,
  "##igo": 14031,
  "forthcoming": 16875,
  "##bel": 8671,
  "ق": 1292,
  "ascending": 22316,
  "##ined": 21280,
  "cable": 5830,
  "human": 2529,
  "rightful": 27167,
  "ryu": 19367,
  "miracles": 17861,
  "gale": 14554,
  "consolidate": 24939,
  "228": 22238,
  "fai": 26208,
  "reelection": 17648,
  "buzzed": 21377,
  "у": 1198,
  "rustling": 29188,
  "styx": 21856,
  "##obe": 20891,
  "superb": 21688,
  "##castle": 23662,
  "discontinued": 8944,
  "melissa": 9606,
  "biggest": 5221,
  "plush": 27729,
  "lineman": 24062,
  "##れ": 30214,
  "thorpe": 20249,
  "sino": 19432,
  "hoop": 27669,
  "alberta": 7649,
  "commandant": 15254,
  "assurance": 16375,
  "##ver": 6299,
  "unaware": 11499,
  "trailers": 21389,
  "##coe": 16288,
  "showing": 4760,
  "kiev": 12100,
  "backdrop": 18876,
  "##makers": 12088,
  "gaped": 23832,
  "slacks": 27786,
  "70th": 26934,
  "haryana": 23261,
  "haynes": 21805,
  "##rri": 18752,
  "dolphins": 13600,
  "sabine": 18578,
  "1972": 3285,
  "an": 2019,
  "mater": 16289,
  "hint": 9374,
  "mutants": 23892,
  "##ignment": 24838,
  "read": 3191,
  "inability": 13720,
  "neglected": 15486,
  "realised": 11323,
  "##uet": 23361,
  "minerva": 27383,
  "humming": 20364,
  "dirt": 6900,
  "ش": 1283,
  "gear": 6718,
  "jarvis": 21072,
  "deserts": 28858,
  "##oic": 19419,
  "newell": 28052,
  "disapproval": 21406,
  "geographic": 9183,
  "pounder": 20091,
  "rudy": 18254,
  "##ھ": 29844,
  "##bit": 16313,
  "neurological": 23130,
  "morning": 2851,
  "butterfly": 9112,
  "seniors": 15995,
  "subtle": 11259,
  "##grave": 12830,
  "sandwiches": 22094,
  "3000": 11910,
  "dyer": 23494,
  "1570": 28881,
  "salary": 10300,
  "kong": 4290,
  "gesturing": 22317,
  "##ан": 28995,
  "reserve": 3914,
  "##quist": 18331,
  "bias": 13827,
  "hints": 20385,
  "pale": 5122,
  "some": 2070,
  "sandra": 12834,
  "profound": 13769,
  "[unused979]": 984,
  "ravaged": 25537,
  "sabah": 22515,
  "cornered": 25878,
  "donnie": 28486,
  "stroked": 11699,
  "differentiation": 20582,
  "##ク": 30228,
  "repeatedly": 8385,
  "diablo": 28841,
  "arid": 17511,
  "##urity": 25137,
  "ineffective": 20694,
  "whistling": 24350,
  "abruptly": 9225,
  "##name": 18442,
  "marriage": 3510,
  "hurriedly": 23878,
  "first": 2034,
  "music": 2189,
  "##gf": 25708,
  "##hak": 20459,
  "[unused672]": 677,
  "statistics": 6747,
  "proposition": 14848,
  "why": 2339,
  "attache": 29489,
  "1869": 7845,
  "##rga": 28921,
  "fleeting": 25085,
  "##llus": 20159,
  "glancing": 10167,
  "entered": 3133,
  "128": 11899,
  "singled": 25369,
  "clones": 24418,
  "hairy": 15892,
  "mongols": 22235,
  "italians": 16773,
  "projected": 11310,
  "styling": 20724,
  "9": 1023,
  "outing": 26256,
  "destroyers": 13242,
  "neumann": 22860,
  "nixon": 11296,
  "##cs": 6169,
  "sessions": 6521,
  "sharks": 12004,
  "jorge": 10853,
  "campaigns": 8008,
  "1840": 8905,
  "##nish": 24014,
  "legend": 5722,
  "junctions": 27169,
  "tub": 14366,
  "##asa": 16782,
  "afterwards": 5728,
  "seasonal": 12348,
  "economist": 11708,
  "croft": 28983,
  "indigo": 22472,
  "builds": 16473,
  "saves": 13169,
  "commended": 22429,
  "gaa": 19930,
  "121": 12606,
  "heidi": 21372,
  "intrusion": 24554,
  "##lls": 12718,
  "girls": 3057,
  "lithuanian": 10333,
  "mars": 7733,
  "艹": 1939,
  "sandwich": 11642,
  "##hes": 15689,
  "montgomery": 8482,
  "##rgeon": 28242,
  "rafe": 15819,
  "temple": 3379,
  "retired": 3394,
  "spiders": 14160,
  "punching": 19477,
  "erased": 23516,
  "breakout": 25129,
  "bells": 10118,
  "heavier": 11907,
  "skilled": 10571,
  "1655": 28438,
  "ll": 2222,
  "apt": 26794,
  "rallies": 22867,
  "mateo": 19327,
  "acute": 11325,
  "##lance": 23078,
  "citizens": 4480,
  "relationship": 3276,
  "##ne": 2638,
  "quadrant": 29371,
  "morocco": 9835,
  "forefront": 22870,
  "##cco": 21408,
  "hitch": 27738,
  "lured": 26673,
  "##holm": 18884,
  "##que": 4226,
  "ape": 23957,
  "£5": 27813,
  "##iful": 18424,
  "enrico": 21982,
  "cursing": 19752,
  "baptiste": 17329,
  "ს": 1452,
  "decatur": 27783,
  "institutions": 4896,
  "##nos": 15460,
  "##mie": 9856,
  "mentoring": 29192,
  "seriously": 5667,
  "volga": 26459,
  "crust": 19116,
  "gilbert": 7664,
  "returned": 2513,
  "dolly": 19958,
  "apartments": 9620,
  "disappointment": 10520,
  "lew": 24992,
  "dammit": 20878,
  "##rino": 17815,
  "cages": 27157,
  "packaged": 21972,
  "hermann": 12224,
  "risking": 26875,
  "[unused915]": 920,
  "barrio": 25676,
  "##dus": 17619,
  "ו": 1246,
  "##ami": 10631,
  "conservatoire": 29233,
  "ी": 1342,
  "evicted": 25777,
  "endowed": 19038,
  "illicit": 25049,
  "underground": 5230,
  "differentiated": 24374,
  "[unused524]": 529,
  "[unused921]": 926,
  "crawled": 12425,
  "version": 2544,
  "dialect": 9329,
  "benches": 19571,
  "violated": 14424,
  "##„": 30060,
  "##washed": 27283,
  "winslow": 26600,
  "gladly": 24986,
  "ham": 10654,
  "thornton": 14630,
  "instability": 18549,
  "deal": 3066,
  "monroe": 9747,
  "lacks": 14087,
  "amend": 27950,
  "kerman": 24500,
  "monastic": 17361,
  "fairly": 7199,
  "ª": 1076,
  "huron": 21899,
  "##vin": 6371,
  "flick": 17312,
  "##ք": 29786,
  "##ppet": 29519,
  "##vara": 24516,
  "stronghold": 16995,
  "assert": 20865,
  "alexandra": 10481,
  "pereira": 23857,
  "coffee": 4157,
  "grunt": 20696,
  "sewer": 22365,
  "##↓": 30114,
  "huts": 23326,
  "junk": 18015,
  "unwilling": 15175,
  "jamestown": 27435,
  "helens": 24074,
  "[unused724]": 729,
  "##km": 22287,
  "biotechnology": 20353,
  "chichester": 23406,
  "##ე": 29978,
  "recognized": 3858,
  "festival": 2782,
  "goin": 17249,
  "##義": 30462,
  "arrondissement": 20522,
  "drought": 14734,
  "inevitable": 13418,
  "targeting": 14126,
  "eldest": 7310,
  "[unused113]": 118,
  "事": 1751,
  "farms": 8623,
  "70s": 17549,
  "pistol": 8779,
  "357": 26231,
  "highway": 3307,
  "mother": 2388,
  "crowned": 10249,
  "##ld": 6392,
  "я": 1210,
  "##pressing": 24128,
  "mills": 6341,
  "gorge": 14980,
  "hosts": 6184,
  "maitland": 25511,
  "pour": 10364,
  "元": 1769,
  "224": 19711,
  "biennale": 21140,
  "##rsten": 19020,
  "grinned": 6973,
  "gough": 29124,
  "[unused310]": 315,
  "builders": 16472,
  "[unused549]": 554,
  "1743": 25615,
  "resolving": 29304,
  "concluded": 5531,
  "targets": 7889,
  "nay": 29349,
  "singh": 5960,
  "##:": 29627,
  "[unused530]": 535,
  "encyclopedia": 12204,
  "england": 2563,
  "##tica": 22723,
  "shade": 8703,
  "quake": 27785,
  "##松": 30406,
  "pregnancy": 10032,
  "apocalypse": 16976,
  "##nais": 28020,
  "875": 27658,
  "columbia": 3996,
  "extra": 4469,
  "wanna": 10587,
  "chain": 4677,
  "moniker": 21937,
  "zheng": 20985,
  "900": 7706,
  "thailand": 6504,
  "რ": 1451,
  "##urus": 20089,
  "attribute": 17961,
  "quarterfinals": 9237,
  "##tch": 10649,
  "este": 28517,
  "tending": 25069,
  "starring": 4626,
  "repertoire": 13646,
  "seriousness": 27994,
  "gt": 14181,
  "user": 5310,
  "winged": 14462,
  "rocker": 24779,
  "ryan": 4575,
  "1626": 28818,
  "solids": 26778,
  "locke": 18343,
  "racehorse": 25068,
  "corruption": 7897,
  "rained": 28270,
  "foraging": 26912,
  "goran": 28356,
  "almond": 26011,
  "rookie": 8305,
  "pontiac": 24538,
  "saxe": 24937,
  "sal": 16183,
  "keyboards": 6269,
  "maddy": 20789,
  "tim": 5199,
  "293": 26953,
  "hasty": 27151,
  "[unused572]": 577,
  "selangor": 28904,
  "boroughs": 21413,
  "rebels": 8431,
  "coli": 27441,
  "havre": 28890,
  "realized": 3651,
  "situ": 26179,
  "cullen": 19925,
  "moors": 24812,
  "1992": 2826,
  "katz": 20729,
  "bosch": 25936,
  "##า": 29958,
  "sid": 15765,
  "audit": 15727,
  "[unused356]": 361,
  "barge": 19398,
  "anchors": 24674,
  "sits": 7719,
  "drinks": 8974,
  "ბ": 1439,
  "allegro": 25319,
  "fingernails": 21243,
  "remove": 6366,
  "cells": 4442,
  "sheer": 11591,
  "dudley": 12648,
  "ろ": 1689,
  "[unused429]": 434,
  "microscopy": 29105,
  "heterosexual": 28229,
  "impacts": 14670,
  "cary": 20533,
  "constituency": 5540,
  "screenwriter": 11167,
  "##ɑ": 29677,
  "##onis": 27296,
  "margarita": 24570,
  "strangely": 13939,
  "bethany": 16559,
  "edict": 24754,
  "compilations": 22754,
  "preparatory": 13485,
  "mic": 23025,
  "corona": 21887,
  "socially": 14286,
  "1785": 17262,
  "respected": 9768,
  "fantasy": 5913,
  "filed": 6406,
  "timed": 22313,
  "intellect": 24823,
  "wrong": 3308,
  "fewer": 8491,
  "receptors": 13833,
  "ひ": 1673,
  "tianjin": 26216,
  "##block": 23467,
  "trunks": 20509,
  "##র": 29908,
  "applause": 20737,
  "low": 2659,
  "semitic": 20604,
  "pastry": 27060,
  "infiltrate": 29543,
  "##|": 29641,
  "##ivism": 22486,
  "maha": 24404,
  "explored": 10641,
  "193": 19984,
  "cold": 3147,
  "[unused640]": 645,
  "xx": 22038,
  "amenities": 19870,
  "injustice": 21321,
  "cortes": 22242,
  "distraction": 14836,
  "##tist": 16774,
  "fiancee": 19455,
  "##inae": 16414,
  "##otype": 26305,
  "admits": 14456,
  "knotted": 27039,
  "1956": 3838,
  "##ב": 29789,
  "eun": 26070,
  "##jia": 26541,
  "##efe": 27235,
  "installation": 8272,
  "sliding": 8058,
  "mysterious": 8075,
  "##lain": 15987,
  "##hend": 22342,
  "visible": 5710,
  "approx": 22480,
  "isbn": 3175,
  "matt": 4717,
  "110": 7287,
  "##rmin": 27512,
  "ﬁ": 1984,
  "deciding": 10561,
  "archaic": 19261,
  "tay": 28117,
  "wishing": 10261,
  "concurrent": 16483,
  "kc": 21117,
  "parchment": 22433,
  "commuter": 14334,
  "consisted": 5031,
  "##resses": 25932,
  "rig": 19838,
  "hate": 5223,
  "##zzi": 13793,
  "moderator": 29420,
  "1965": 3551,
  "excavation": 16456,
  "1760": 19096,
  "bratislava": 22992,
  "[unused139]": 144,
  "connecticut": 6117,
  "##ᵈ": 30034,
  "academic": 3834,
  "##ocene": 25793,
  "nikita": 29106,
  "##ق": 29834,
  "dessert": 18064,
  "shuffled": 18764,
  "temperance": 23372,
  "shopping": 6023,
  "rectangular": 10806,
  "cooper": 6201,
  "verve": 29230,
  "1623": 29056,
  "scattered": 7932,
  "disrepair": 27799,
  "army": 2390,
  "##olar": 19478,
  "##lkirk": 23913,
  "bounty": 17284,
  "meiji": 23214,
  "##le": 2571,
  "theory": 3399,
  "##ᶜ": 30046,
  "pennsylvania": 3552,
  "compare": 12826,
  "absorbed": 9063,
  "trophies": 22236,
  "policy": 3343,
  "finger": 4344,
  "stall": 13498,
  "bingham": 24579,
  "##rations": 28893,
  "mahogany": 23867,
  "infused": 29592,
  "28": 2654,
  "entrusted": 18011,
  "parma": 19177,
  "anderson": 5143,
  "み": 1678,
  "##lev": 20414,
  "##tv": 9189,
  "uncanny": 28953,
  "##ters": 7747,
  "curl": 15390,
  "740": 25833,
  "tells": 4136,
  "valley": 3028,
  "villiers": 25333,
  "##hat": 12707,
  "maroon": 22222,
  "hoisted": 27269,
  "touchdowns": 10183,
  "##far": 14971,
  "confess": 18766,
  "overboard": 27089,
  "molina": 25601,
  "bolshevik": 24477,
  "##graphs": 27341,
  "##torium": 24390,
  "becomes": 4150,
  "branch": 3589,
  "je": 15333,
  "##uing": 25165,
  "reconciled": 28348,
  "worsened": 27622,
  "pursuits": 23719,
  "##ander": 12243,
  "##press": 20110,
  "##sby": 14478,
  "375": 18034,
  "##₀": 17110,
  "invade": 18445,
  "cal": 10250,
  "craved": 25155,
  "invitation": 8468,
  "##lative": 26255,
  "mansion": 7330,
  "unchanged": 15704,
  "extras": 26279,
  "appliances": 22449,
  "##rta": 13320,
  "##iman": 18505,
  "amelie": 25285,
  "ridley": 20608,
  "date": 3058,
  "tunnel": 5234,
  "bribery": 27748,
  "solution": 5576,
  "burnham": 25295,
  "utrecht": 18361,
  "loops": 15932,
  "ʸ": 1144,
  "irs": 25760,
  "##dication": 25027,
  "metabolism": 18089,
  "##anza": 16076,
  "##vron": 28588,
  "uefa": 6663,
  "hive": 26736,
  "tentacles": 24719,
  "starved": 26042,
  "neville": 14871,
  "##ニ": 30242,
  "wielding": 26974,
  "seaman": 21626,
  "billing": 25640,
  "finch": 16133,
  "##\\": 29635,
  "215": 17405,
  "tom": 3419,
  "yuki": 24924,
  "horace": 12757,
  "historical": 3439,
  "##ato": 10610,
  "flashback": 21907,
  "murdered": 7129,
  "blizzard": 21689,
  "##ducted": 29510,
  "ভ": 1369,
  "##nary": 24041,
  "signaling": 14828,
  "genius": 11067,
  "950": 20317,
  "workshop": 8395,
  "nate": 8253,
  "banned": 7917,
  "titans": 13785,
  "fill": 6039,
  "expressway": 11720,
  "tuba": 29242,
  "1996": 2727,
  "praises": 27128,
  "bison": 22285,
  "wrestle": 25579,
  "novel": 3117,
  "centers": 6401,
  "bohemia": 16799,
  "##च": 29854,
  "planned": 3740,
  "thistle": 24328,
  "stint": 12116,
  "##vinsky": 27704,
  "##uf": 16093,
  "feasibility": 24010,
  "##oes": 22504,
  "josef": 12947,
  "##aris": 23061,
  "##eda": 11960,
  "surfaces": 9972,
  "##oh": 11631,
  "marcos": 14810,
  "##さ": 30182,
  "cassie": 8869,
  "weasel": 29268,
  "rider": 7945,
  "turmoil": 17930,
  "int": 20014,
  "imperial": 4461,
  "##lion": 18964,
  "supervisor": 12366,
  "kilometers": 7338,
  "##р": 16856,
  "landowner": 20270,
  "rouen": 27030,
  "express": 4671,
  "journalism": 8083,
  "hardwood": 23165,
  "motivation": 14354,
  "involving": 5994,
  "hai": 15030,
  "##uted": 12926,
  "mustafa": 19683,
  "minions": 28071,
  "brethren": 17937,
  "lister": 27177,
  "##文": 30387,
  "1754": 22593,
  "##de": 3207,
  "##46": 21472,
  "phil": 6316,
  "##ನ": 29936,
  "borne": 15356,
  "strains": 18859,
  "amor": 16095,
  "website": 4037,
  "##կ": 29774,
  "flush": 13862,
  "##vah": 21927,
  "lacy": 19959,
  "discussions": 10287,
  "aperture": 18892,
  "gunners": 29000,
  "pakistan": 4501,
  "##ceae": 9071,
  "descendant": 12608,
  "heaven": 6014,
  "unitarian": 25477,
  "##ula": 7068,
  "##owe": 29385,
  "diana": 8805,
  "appropriations": 22713,
  "cruz": 8096,
  "norse": 15342,
  "floyd": 12305,
  "##ض": 29827,
  "genuine": 10218,
  "##ₕ": 30093,
  "normal": 3671,
  "##ы": 29113,
  "melbourne": 4940,
  "nehru": 23556,
  "elliptical": 27213,
  "lengthy": 12401,
  "tessa": 13167,
  "erie": 13374,
  "tons": 6197,
  "corporation": 3840,
  "dealers": 16743,
  "mara": 13955,
  "clip": 12528,
  "[unused907]": 912,
  "syndicate": 16229,
  "waited": 4741,
  "##vyn": 23487,
  "exclaimed": 12713,
  "allan": 8926,
  "parkway": 12602,
  "##dle": 10362,
  "footed": 28856,
  "##ota": 17287,
  "seated": 8901,
  "rupert": 14641,
  "abolitionist": 29554,
  "##گ": 29842,
  "rest": 2717,
  "xiv": 15939,
  "spoke": 3764,
  "jett": 22962,
  "desired": 9059,
  "rumored": 22710,
  "rear": 4373,
  "oven": 17428,
  "applies": 12033,
  "[unused517]": 522,
  "oversees": 22558,
  "affiliation": 12912,
  "##vity": 24872,
  "##dana": 25917,
  "distributions": 20611,
  "longtime": 11155,
  "requests": 11186,
  "##gara": 24864,
  "clinton": 7207,
  "##screen": 18182,
  "holland": 7935,
  "36th": 21460,
  "lass": 27333,
  "insulting": 23979,
  "[unused63]": 64,
  "ascot": 29036,
  "[unused364]": 369,
  "tram": 12517,
  "juvenile": 11799,
  "##yuki": 19663,
  "warmly": 22775,
  "kn": 14161,
  "telecom": 18126,
  "goldstein": 25507,
  "##tance": 26897,
  "pants": 6471,
  "##guard": 18405,
  "tuesday": 9857,
  "##atal": 27815,
  "intercourse": 23198,
  "interceptor": 24727,
  "nato": 10079,
  "nutritional": 28268,
  "filling": 8110,
  "amplified": 26986,
  "##aru": 15728,
  "##／": 30518,
  "friedrich": 8896,
  "##itical": 26116,
  "meaning": 3574,
  "chancellor": 7306,
  "encompassed": 24058,
  "marginal": 14785,
  "treasures": 17605,
  "##lous": 15534,
  "77": 6255,
  "less": 2625,
  "solving": 13729,
  "##eman": 16704,
  "sponsor": 10460,
  "hardness": 23608,
  "suck": 11891,
  "gratitude": 15531,
  "assured": 8916,
  "44th": 26409,
  "##ip": 11514,
  "unreliable": 23579,
  "##gu": 12193,
  "stage": 2754,
  "##ل": 23673,
  "336": 27954,
  "lock": 5843,
  "anxiety": 10089,
  "##port": 6442,
  "skinny": 15629,
  "1852": 8784,
  "advertising": 6475,
  "₍": 1558,
  "##itation": 18557,
  "string": 5164,
  "stalled": 20659,
  "ia": 24264,
  "vt": 28879,
  "mann": 10856,
  "led": 2419,
  "[unused348]": 353,
  "novo": 24576,
  "attitudes": 13818,
  "volume": 3872,
  "expression": 3670,
  "rake": 26008,
  "stimulus": 19220,
  "advisers": 24205,
  "barrie": 24953,
  "upbringing": 24615,
  "illumination": 21203,
  "bulbs": 25548,
  "##chner": 28254,
  "chrysler": 17714,
  "expenditures": 22697,
  "fade": 12985,
  "salvage": 18340,
  "##erence": 20935,
  "{": 1063,
  "value": 3643,
  "absorb": 16888,
  "fragments": 10341,
  "670": 25535,
  "rev": 7065,
  "tracey": 25984,
  "monitor": 8080,
  "[UNK]": 100,
  "##kovic": 14733,
  "##ably": 8231,
  "##genesis": 23737,
  "mclaren": 18590,
  "mont": 18318,
  "settler": 18556,
  "93": 6109,
  "##ט": 29795,
  "slip": 7540,
  "bernardino": 21370,
  "sprang": 15627,
  "slain": 19668,
  "##lving": 25780,
  "123": 13138,
  "champ": 24782,
  "offence": 15226,
  "978": 4891,
  "##oder": 27381,
  "apprehension": 25809,
  "gift": 5592,
  "richer": 26108,
  "##љ": 29762,
  "friendly": 5379,
  "ᆷ": 1487,
  "needed": 2734,
  "##wark": 24298,
  "unincorporated": 7754,
  "swearing": 25082,
  "rituals": 13549,
  "violin": 6710,
  "alterations": 16705,
  "energies": 19320,
  "star": 2732,
  "##del": 9247,
  "semi": 4100,
  "tends": 12102,
  "stud": 16054,
  "gerais": 29220,
  "nestled": 22704,
  "[unused775]": 780,
  "##ndon": 19333,
  "##vc": 25465,
  "discussed": 6936,
  "nationalities": 24904,
  "[unused792]": 797,
  "indicates": 7127,
  "matter": 3043,
  "##ining": 24002,
  "payment": 7909,
  "voting": 6830,
  "instantly": 6880,
  "ー": 1739,
  "decent": 11519,
  "results": 3463,
  "pleasing": 24820,
  "fiesta": 24050,
  "plans": 3488,
  "banks": 5085,
  "snuggled": 26867,
  "pupil": 11136,
  "[unused90]": 91,
  "yue": 27163,
  "talking": 3331,
  "new": 2047,
  "luftwaffe": 17740,
  "slovene": 18326,
  "tour": 2778,
  "que": 10861,
  "##tos": 13122,
  "springfield": 10493,
  "footsteps": 9717,
  "nyu": 27935,
  "##ɨ": 29684,
  "constantin": 27991,
  "1734": 27367,
  "blanco": 20036,
  "strokes": 13692,
  "wet": 4954,
  "spoken": 5287,
  "conditioning": 14372,
  "wharf": 16435,
  "sparsely": 24961,
  "revisited": 24354,
  "suez": 21974,
  "learns": 10229,
  "chromosome": 16706,
  "crossover": 16335,
  "martian": 20795,
  "theories": 8106,
  "dude": 12043,
  "malaga": 27382,
  "##opers": 27342,
  "rags": 26346,
  "##hide": 26100,
  "ruin": 10083,
  "generator": 13103,
  "吉": 1793,
  "[unused47]": 48,
  "sweat": 7518,
  "burgess": 17754,
  "bend": 8815,
  "accession": 16993,
  "eligibility": 11395,
  "prosperity": 14165,
  "##rrard": 29599,
  "protocols": 16744,
  "840": 28122,
  "headlights": 18167,
  "award": 2400,
  "boy": 2879,
  "odi": 21045,
  "state": 2110,
  "##athan": 29246,
  "kolkata": 13522,
  "naming": 10324,
  "indirect": 14958,
  "仁": 1758,
  "[unused369]": 374,
  "remixes": 15193,
  "rental": 12635,
  "adolph": 28564,
  "##☆": 30148,
  "doom": 12677,
  "lightweight": 12038,
  "visuals": 26749,
  "revoked": 22837,
  "stripes": 13560,
  "vanilla": 21161,
  "##sworth": 12255,
  "future": 2925,
  "##rc": 11890,
  "highly": 3811,
  "##gs": 5620,
  "addicted": 23042,
  "interspersed": 25338,
  "lieu": 22470,
  "housing": 3847,
  "1982": 3196,
  "gamer": 27911,
  "dry": 4318,
  "##34": 22022,
  "##dorf": 11592,
  "3d": 7605,
  "##nic": 8713,
  "##grant": 18980,
  "##glers": 25555,
  "wisdom": 9866,
  "##par": 19362,
  "sanitation": 18723,
  "##dun": 27584,
  "sigh": 6682,
  "woke": 8271,
  "quit": 8046,
  "program": 2565,
  "ter": 28774,
  "rebound": 27755,
  "web": 4773,
  "appoint": 16823,
  "vince": 12159,
  "vanuatu": 27625,
  "championship": 2528,
  "m": 1049,
  "ein": 16417,
  "rite": 14034,
  "bahia": 22474,
  "milne": 24377,
  "torture": 8639,
  "ss": 7020,
  "contact": 3967,
  "consideration": 9584,
  "gmina": 7061,
  "sa": 7842,
  "zealand": 3414,
  "walnut": 18489,
  "developments": 8973,
  "253": 23254,
  "ध": 1326,
  "scorer": 10835,
  "##♦": 30153,
  "##手": 30384,
  "[unused354]": 359,
  "engine": 3194,
  "##ger": 4590,
  "releasing": 8287,
  "ァ": 1692,
  "length": 3091,
  "verity": 22178,
  "independence": 4336,
  "duncan": 7343,
  "belonged": 6272,
  "abc": 5925,
  "hugh": 6621,
  "gaping": 21226,
  "trainer": 10365,
  "falsely": 23123,
  "estranged": 24211,
  "exam": 11360,
  "inner": 5110,
  "fare": 13258,
  "burundi": 28836,
  "##hort": 27794,
  "cerambycidae": 13168,
  "tough": 7823,
  "import": 12324,
  "server": 8241,
  "sent": 2741,
  "##thor": 27844,
  "dixon": 11357,
  "tales": 7122,
  "[unused4]": 5,
  "barnsley": 25139,
  "##tip": 25101,
  "ban": 7221,
  "jewel": 13713,
  "reduction": 7312,
  "scholarly": 12683,
  "910": 27743,
  "facilitates": 27777,
  "48th": 27787,
  "cunning": 23626,
  "##hue": 20169,
  "determining": 12515,
  "##idia": 29342,
  "intrinsic": 23807,
  "landowners": 20152,
  "exceptions": 11790,
  "##lika": 25421,
  "##မ": 29973,
  "commando": 15054,
  "district": 2212,
  "obscured": 23649,
  "empirical": 17537,
  "##som": 25426,
  "our": 2256,
  "visiting": 5873,
  "petition": 9964,
  "bosses": 23029,
  "amsterdam": 7598,
  "##ী": 29916,
  "[unused178]": 183,
  "610": 19827,
  "inadequate": 14710,
  "calais": 23116,
  "##uchi": 15217,
  "四": 1798,
  "drain": 12475,
  "expressing": 14026,
  "##ı": 11722,
  "musee": 18070,
  "##lica": 19341,
  "bai": 21790,
  "##rich": 13149,
  "delegation": 10656,
  "##hin": 10606,
  "##s": 2015,
  "##ocks": 25384,
  "march": 2233,
  "languages": 4155,
  "huddled": 20258,
  "finley": 29194,
  "accompanying": 10860,
  "prevented": 8729,
  "marjorie": 21562,
  "further": 2582,
  "chesapeake": 20867,
  "consumer": 7325,
  "##⊆": 30138,
  "trainee": 26758,
  "happens": 6433,
  "##nged": 21558,
  "[unused991]": 996,
  "qualifications": 15644,
  "naples": 10553,
  "nes": 24524,
  "assaulted": 17536,
  "colonization": 18962,
  "##bu": 8569,
  "ache": 12336,
  "soared": 29127,
  "tis": 22320,
  "actions": 4506,
  "199": 20713,
  "desirable": 16166,
  "hierarchy": 12571,
  "brushes": 22569,
  "subdivided": 15369,
  "disagree": 21090,
  "mendez": 28950,
  "dresden": 12983,
  "##lated": 13776,
  "mouths": 15076,
  "ribbons": 22688,
  "[unused183]": 188,
  "baronet": 8693,
  "petroleum": 11540,
  "mathematicians": 29374,
  "##eau": 10207,
  "expect": 5987,
  "cordoba": 17986,
  "informally": 21858,
  "##itive": 13043,
  "eritrea": 26040,
  "automobile": 9935,
  "batavia": 28917,
  "##bahn": 16052,
  "promising": 10015,
  "bumped": 19030,
  "bottom": 3953,
  "mph": 5601,
  "bengal": 8191,
  "##dt": 11927,
  "declan": 16494,
  "edged": 13011,
  "##jk": 15992,
  "petty": 11612,
  "!": 999,
  "##bry": 25731,
  "1767": 21502,
  "progress": 5082,
  "##kai": 11151,
  "funding": 4804,
  "terminate": 20320,
  "shelton": 22230,
  "[unused15]": 16,
  "##宀": 30344,
  "##worth": 5172,
  "advisory": 7319,
  "1970s": 3955,
  "##rder": 26764,
  "leipzig": 11222,
  "holdings": 9583,
  "hamlet": 8429,
  "appointed": 2805,
  "fame": 4476,
  "pointless": 23100,
  "fat": 6638,
  "##antly": 15706,
  "greenland": 16128,
  "romeo": 12390,
  "[unused72]": 73,
  "1819": 12552,
  "preventing": 10723,
  "robinson": 6157,
  "gunnar": 26138,
  "canteen": 26449,
  "bourbon": 15477,
  "suites": 19796,
  "shame": 9467,
  "format": 4289,
  "utility": 9710,
  "##case": 18382,
  "5": 1019,
  "hanna": 10579,
  "bred": 13680,
  "attracts": 17771,
  "ivo": 28346,
  "↔": 1587,
  "##տ": 29783,
  "[unused679]": 684,
  "##dran": 24914,
  "stops": 6762,
  "ւ": 1238,
  "livestock": 11468,
  "clone": 17598,
  "##js": 22578,
  "colliery": 19462,
  "functionality": 15380,
  "collapsing": 22724,
  "[unused456]": 461,
  "conclude": 16519,
  "addressing": 12786,
  "p": 1052,
  "down": 2091,
  "##tick": 26348,
  "prize": 3396,
  "tuberculosis": 15877,
  "##go": 3995,
  "grenade": 17038,
  "##25": 17788,
  "##eus": 10600,
  "bride": 8959,
  "louder": 10989,
  "administrator": 8911,
  "uniformed": 25189,
  "##lde": 17920,
  "superstructure": 28391,
  "vega": 15942,
  "dana": 11271,
  "##41": 23632,
  "russ": 18072,
  "б": 1181,
  "farming": 7876,
  "climbed": 6589,
  "perspective": 7339,
  "grande": 9026,
  "##ols": 27896,
  "humanity": 8438,
  "rail": 4334,
  "##guide": 28582,
  "[unused627]": 632,
  "enrolled": 8302,
  "camping": 13215,
  "nascar": 11838,
  "levin": 20206,
  "opt": 23569,
  "道": 1957,
  "constituent": 13794,
  "[unused347]": 352,
  "hilary": 22744,
  "gradual": 16612,
  "oboe": 22523,
  "hawkins": 13835,
  "い": 1647,
  "spat": 14690,
  "##zard": 26154,
  "recently": 3728,
  "##ص": 29826,
  "chef": 10026,
  "inscriptions": 12920,
  "potent": 16834,
  "##tech": 15007,
  "demonstrate": 10580,
  "successors": 18530,
  "rec": 28667,
  "cochrane": 22329,
  "[unused954]": 959,
  "nueva": 24536,
  "barely": 4510,
  "##uity": 18518,
  "wb": 25610,
  "##cology": 19824,
  "accordance": 10388,
  "wince": 29585,
  "acronym": 20137,
  "軍": 1955,
  "painful": 9145,
  "elliot": 11759,
  "justin": 6796,
  "suzy": 28722,
  "1949": 4085,
  "##thic": 23048,
  "疒": 1913,
  "particularly": 3391,
  "##ddling": 21814,
  "mandatory": 10915,
  "lattice": 17779,
  "saw": 2387,
  "slayer": 20005,
  "700": 6352,
  "metropolitan": 4956,
  "wingspan": 9635,
  "poorly": 9996,
  "miocene": 26926,
  "夫": 1813,
  "cooke": 16546,
  "westfield": 26584,
  "aristotle": 17484,
  "restored": 5854,
  "##tish": 24788,
  "##chev": 16179,
  "łodz": 17814,
  "[unused360]": 365,
  "essay": 9491,
  "designations": 26672,
  "coincide": 19680,
  "ascension": 18071,
  "##hm": 14227,
  "molded": 27992,
  "parliamentary": 5768,
  "gurney": 25061,
  "protection": 3860,
  "fujian": 29551,
  "smashing": 21105,
  "congressman": 12295,
  "hu": 15876,
  "precedent": 20056,
  "bhutan": 18768,
  "kaladin": 22588,
  "agustin": 26889,
  "##tes": 4570,
  "rossi": 18451,
  "##rained": 27361,
  "tattooed": 26464,
  "brodie": 27379,
  "##ological": 10091,
  "δ": 1158,
  "nightmares": 15446,
  "balloons": 22163,
  "coached": 8868,
  "##moral": 22049,
  "##dad": 14697,
  "croydon": 21838,
  "sinking": 10186,
  "moore": 5405,
  "[unused78]": 79,
  "vulture": 27588,
  "asserts": 19514,
  "medicinal": 20632,
  "manga": 8952,
  "##ia": 2401,
  "laundry": 14533,
  "transit": 6671,
  "24th": 13386,
  "##jak": 18317,
  "pandora": 19066,
  "panels": 9320,
  "##ˤ": 29719,
  "##nified": 25201,
  "hypothesis": 10744,
  "##gen": 6914,
  "mae": 11530,
  "##outh": 17167,
  "##gating": 16961,
  "readiness": 19822,
  "##tral": 21493,
  "checkpoint": 26520,
  "harvested": 22629,
  "stains": 27094,
  "moonlight": 11986,
  "##ハ": 30244,
  "teach": 6570,
  "ke": 17710,
  "wil": 19863,
  "sensor": 13617,
  "collecting": 9334,
  "remarkable": 9487,
  "closes": 14572,
  "rejects": 19164,
  "brewing": 16005,
  "##ain": 8113,
  "##ez": 9351,
  "patches": 13864,
  "finishes": 12321,
  "[unused730]": 735,
  "blood": 2668,
  "##wil": 29602,
  "[unused236]": 241,
  "kyrgyzstan": 23209,
  "unnamed": 13294,
  "implemented": 7528,
  "concurrently": 15442,
  "ruining": 27853,
  "[unused608]": 613,
  "thomson": 11161,
  "dieter": 27976,
  "[unused42]": 43,
  "benny": 11945,
  "##tzer": 29546,
  "##tea": 27058,
  "acheron": 21427,
  "graduating": 6800,
  "510": 23475,
  "inquired": 24849,
  "##ae": 6679,
  "parental": 18643,
  "##₤": 30100,
  "tried": 2699,
  "curious": 8025,
  "canyon": 8399,
  "fei": 24664,
  "completely": 3294,
  "bernhard": 21432,
  "##ross": 25725,
  "##ι": 18199,
  "##ographic": 13705,
  "reacts": 27325,
  "canon": 9330,
  "wireless": 9949,
  "procurement": 21423,
  "elk": 18995,
  "badge": 10780,
  "##om": 5358,
  "pharaoh": 22089,
  "increases": 7457,
  "“": 1523,
  "backside": 25065,
  "bud": 13007,
  "##fires": 26332,
  "disturb": 22995,
  "bolivia": 11645,
  "##sberg": 11711,
  "sprawling": 24199,
  "revolver": 17863,
  "##rwood": 20941,
  "##kota": 27380,
  "deborah": 15555,
  "governor": 3099,
  "trinity": 7124,
  "motioned": 13054,
  "kicking": 10209,
  "rapper": 10687,
  "bassist": 9858,
  "##inia": 23309,
  "unspoken": 25982,
  "thread": 11689,
  "pee": 21392,
  "exhibiting": 22922,
  "asa": 17306,
  "##ᆯ": 30022,
  "ii": 2462,
  "##mage": 26860,
  "median": 3991,
  "weather": 4633,
  "incarnation": 15715,
  "##tite": 23096,
  "[unused942]": 947,
  "matched": 10349,
  "trojan": 23445,
  "seed": 6534,
  "tan": 9092,
  "mark": 2928,
  "cane": 11942,
  "tottenham": 18127,
  "##cott": 13124,
  "saudi": 8174,
  "リ": 1732,
  "frigates": 22833,
  "presents": 7534,
  "coping": 27520,
  "##lines": 12735,
  "vivian": 13801,
  "sasha": 14673,
  "remembers": 17749,
  "broadcast": 3743,
  "waters": 5380,
  "darkest": 23036,
  "thump": 21324,
  "maureen": 19167,
  "networking": 14048,
  "##qvist": 28705,
  "liar": 16374,
  "##ruff": 26919,
  "հ": 1228,
  "kaye": 23686,
  "circling": 18519,
  "##হ": 29913,
  "##শ": 29910,
  "bryan": 8527,
  "penal": 18476,
  "aligned": 13115,
  "hamburg": 8719,
  "reclaim": 24104,
  "##tron": 15312,
  "convinces": 19480,
  "ying": 20879,
  "types": 4127,
  "derbyshire": 15207,
  "illustrate": 19141,
  "tap": 11112,
  "glacial": 17381,
  "yearly": 12142,
  "grab": 6723,
  "application": 4646,
  "##io": 3695,
  "##uron": 21017,
  "swear": 8415,
  "ideals": 15084,
  "##hila": 26415,
  "sleeve": 10353,
  "[unused972]": 977,
  "entire": 2972,
  "##ka": 2912,
  "tidy": 29369,
  "libraries": 8860,
  "boss": 5795,
  "rita": 11620,
  "foundry": 19853,
  "analysts": 18288,
  "nonfiction": 25753,
  "surged": 18852,
  "1800": 9807,
  "##gata": 26589,
  "guaranteed": 12361,
  "sk": 15315,
  "##cked": 18141,
  "##back": 5963,
  "diplomat": 11125,
  "dorian": 16092,
  "1847": 9176,
  "伊": 1762,
  "netflix": 20907,
  "greatly": 6551,
  "nighttime": 26031,
  "tested": 7718,
  "workings": 24884,
  "pulse": 8187,
  "exchanging": 25620,
  "alley": 8975,
  "ideological": 17859,
  "armored": 10612,
  "##nies": 15580,
  "wishes": 8996,
  "jace": 10352,
  "arched": 9194,
  "1711": 28455,
  "pilgrim": 21214,
  "##人": 30282,
  "azerbaijan": 8365,
  "ม": 1415,
  "dorothea": 24052,
  "##ᄊ": 29998,
  "dharma": 20669,
  "discipline": 9009,
  "##tangled": 27898,
  "fifteen": 5417,
  "1970": 3359,
  "##mmel": 29033,
  "depending": 5834,
  "fates": 26417,
  "patton": 18090,
  "720": 22857,
  "hk": 22563,
  "barton": 12975,
  "renewed": 9100,
  "refinery": 21034,
  "stout": 18890,
  "shipyard": 13858,
  "job": 3105,
  "stump": 22475,
  "koppen": 20139,
  "saddam": 24111,
  "london": 2414,
  "aroma": 23958,
  "##uni": 19496,
  "curving": 21439,
  "quran": 21288,
  "1780": 15051,
  "ranch": 8086,
  "ghosts": 11277,
  "erroneously": 29411,
  "tasked": 13487,
  "##ide": 5178,
  "victory": 3377,
  "scholar": 6288,
  "ballard": 21896,
  "##sb": 19022,
  "retail": 7027,
  "empires": 23560,
  "african": 3060,
  "links": 6971,
  "bench": 6847,
  "##morphic": 18078,
  "inventions": 21644,
  "xvi": 16855,
  "糹": 1934,
  "00": 4002,
  "felicia": 27579,
  "literally": 6719,
  "lookout": 19052,
  "consulting": 10552,
  "arden": 26225,
  "tower": 3578,
  "competitor": 12692,
  "paths": 10425,
  "sandstone": 11694,
  "marguerite": 15334,
  "labelled": 18251,
  "greed": 22040,
  "spawning": 27957,
  "somebody": 8307,
  "[unused248]": 253,
  "[unused601]": 606,
  "bearing": 7682,
  "column": 5930,
  "##hopper": 27330,
  "motel": 14901,
  "eden": 10267,
  "##bf": 29292,
  "greenberg": 24190,
  "insects": 9728,
  "disruption": 20461,
  "maltese": 18563,
  "pastures": 24813,
  "stemmed": 27674,
  "[unused7]": 8,
  "positioning": 19120,
  "solicitor": 15468,
  "##ailed": 17440,
  "mace": 19382,
  "‚": 1522,
  "##rti": 28228,
  "speaks": 8847,
  "5th": 4833,
  "wilfred": 26026,
  "vidal": 29259,
  "harper": 8500,
  "##hora": 16977,
  "##hett": 28499,
  "##tlement": 24007,
  "##uber": 21436,
  "c2": 29248,
  "graded": 21976,
  "##parts": 26950,
  "implication": 25323,
  "800": 5385,
  "entering": 5738,
  "chargers": 18649,
  "pushes": 13956,
  "influenced": 5105,
  "tubes": 10868,
  "partition": 13571,
  "##oo": 9541,
  "must": 2442,
  "arrested": 4727,
  "bury": 11010,
  "esther": 14631,
  "waits": 18074,
  "murmur": 20227,
  "bestowed": 17398,
  "chevy": 29009,
  "windsor": 10064,
  "##fer": 7512,
  "##yne": 9654,
  "##dl": 19422,
  "adventist": 25696,
  "##rton": 11715,
  "moments": 5312,
  "epithet": 19626,
  "british": 2329,
  "deliberate": 15063,
  "rand": 14566,
  "decade": 5476,
  "thrust": 7400,
  "##eche": 27635,
  "occasions": 6642,
  "marlon": 25861,
  "speeches": 13867,
  "paraguay": 13884,
  "steak": 21475,
  "abroad": 6917,
  "##gna": 16989,
  "##ark": 17007,
  "dazed": 19720,
  "##nco": 15305,
  "lunatic": 26594,
  "[": 1031,
  "sharma": 14654,
  "var": 13075,
  "wagon": 9540,
  "attic": 14832,
  "##con": 8663,
  "toned": 27604,
  "terminates": 28790,
  "philips": 19087,
  "posing": 20540,
  "##を": 30216,
  "rus": 22949,
  "risky": 19188,
  "##dak": 23597,
  "mlb": 10901,
  "レ": 1734,
  "philosophers": 17586,
  "roberta": 23455,
  "hit": 2718,
  "georgetown": 12982,
  "outline": 12685,
  "##and": 5685,
  "segments": 9214,
  "insist": 18292,
  "was": 2001,
  "##gno": 26745,
  "lille": 22479,
  "versatile": 22979,
  "npr": 21411,
  "ט": 1249,
  "projections": 21796,
  "##林": 30407,
  "reality": 4507,
  "russia": 3607,
  "##cle": 14321,
  "preschool": 23655,
  "る": 1687,
  "stored": 8250,
  "##ס": 29804,
  "##⁰": 30071,
  "##orin": 28741,
  "[unused811]": 816,
  "sovereignty": 12601,
  "murderer": 13422,
  "replacing": 6419,
  "bronze": 4421,
  "belongs": 7460,
  "augmented": 19335,
  "grounds": 5286,
  "doherty": 23798,
  "stellar": 17227,
  "wilhelm": 9070,
  "carmichael": 23537,
  "traveler": 20174,
  "tides": 22487,
  "telegram": 23921,
  "indian": 2796,
  "##ring": 4892,
  "##zel": 12638,
  "s": 1055,
  "weighing": 15243,
  "##inger": 9912,
  "##ת": 29813,
  "methane": 24481,
  "packers": 15285,
  "rancho": 18123,
  "armada": 25306,
  "simultaneously": 7453,
  "bombings": 20109,
  "¦": 1072,
  "multiple": 3674,
  "к": 1189,
  "##arth": 22425,
  "southeast": 4643,
  "diver": 17856,
  "dresses": 14464,
  "overwhelmed": 13394,
  "[unused566]": 571,
  "##as": 3022,
  "annoyed": 11654,
  "horns": 11569,
  "[unused54]": 55,
  "syracuse": 11736,
  "authentication": 27280,
  "##wick": 7184,
  "cement": 11297,
  "##85": 27531,
  "copa": 10613,
  "reverend": 10547,
  "[unused82]": 83,
  "williamson": 14333,
  "##rick": 11285,
  "nguyen": 16577,
  "montreal": 5548,
  "##⁄": 30070,
  "richmond": 6713,
  "newscasts": 24482,
  "buckingham": 17836,
  "living": 2542,
  "phi": 13569,
  "selections": 16310,
  "lot": 2843,
  "##mind": 23356,
  "cottages": 18918,
  "##orescence": 20030,
  "akbar": 20730,
  "immigrant": 11560,
  "catalina": 22326,
  "monuments": 10490,
  "pegasus": 26606,
  "octopus": 24318,
  "##ms": 5244,
  "pinned": 11807,
  "##pas": 19707,
  "ignores": 26663,
  "##ier": 3771,
  "verdi": 20580,
  "japanese": 2887,
  "##erman": 18689,
  "[unused553]": 558,
  "der": 4315,
  "##ب": 29816,
  "nile": 15179,
  "robbed": 20114,
  "ownership": 6095,
  "uhf": 20131,
  "耳": 1937,
  "havoc": 22156,
  "[unused684]": 689,
  "helplessly": 24942,
  "occupy": 11494,
  "genome": 13458,
  "monkeys": 17059,
  "newer": 10947,
  "cheerful": 18350,
  "##lub": 27959,
  "persecuted": 27666,
  "destroy": 6033,
  "scandal": 9446,
  "##gr": 16523,
  "faces": 5344,
  "##rke": 25074,
  "auxiliary": 9830,
  "idf": 24011,
  "安": 1820,
  "asian": 4004,
  "standalone": 26609,
  "clinched": 18311,
  "chill": 10720,
  "ο": 1169,
  "guangdong": 21287,
  "goals": 3289,
  "##zen": 10431,
  "constraints": 14679,
  "soul": 3969,
  "undergraduate": 8324,
  "spanning": 13912,
  "iraq": 5712,
  "peel": 14113,
  "composers": 9929,
  "has": 2038,
  "suspected": 6878,
  "housed": 7431,
  "revelation": 11449,
  "handled": 8971,
  "impacted": 19209,
  "goddard": 22547,
  "##lana": 16695,
  "bore": 8501,
  "humiliation": 21171,
  "wiltshire": 17045,
  "hounds": 27772,
  "moines": 23286,
  "##raph": 24342,
  "##ʻ": 29711,
  "eddy": 16645,
  "downed": 20164,
  "speeds": 10898,
  "sanders": 12055,
  "angels": 7048,
  "wizard": 10276,
  "475": 28245,
  "supporters": 6793,
  "metz": 24424,
  "succeed": 9510,
  "##elin": 18809,
  "connectivity": 20831,
  "bowen": 16208,
  "timothy": 10805,
  "xl": 28712,
  "brigham": 22727,
  "##mac": 22911,
  "##haw": 14238,
  "islander": 12544,
  "agitated": 21568,
  "eruption": 17259,
  "##mat": 18900,
  "feat": 8658,
  "quarterback": 9074,
  "folding": 12745,
  "##liga": 14715,
  "dubbed": 9188,
  "155": 14168,
  "succumbed": 25642,
  "conducts": 17976,
  "##des": 6155,
  "endeavor": 23855,
  "bolivar": 22118,
  "keeper": 10684,
  "byrd": 17845,
  "walton": 14290,
  "miniatures": 28615,
  "##mme": 20058,
  "##uate": 20598,
  "##ե": 29770,
  "evolving": 20607,
  "scented": 25738,
  "kennedy": 5817,
  "retro": 22307,
  "monument": 6104,
  "norfolk": 7735,
  "increasing": 4852,
  "cure": 9526,
  "##』": 30170,
  "##vers": 14028,
  "demeanor": 21745,
  "##top": 14399,
  "sheppard": 24976,
  "vargas": 20556,
  "bonded": 20886,
  "handcuffs": 28338,
  "stimulating": 27295,
  "mg": 11460,
  "ambitions": 19509,
  "clerk": 7805,
  "lunch": 6265,
  "faced": 4320,
  "medications": 20992,
  "sylvester": 20016,
  "##ams": 13596,
  "cavity": 17790,
  "e": 1041,
  "hammer": 8691,
  "records": 2636,
  "aus": 17151,
  "##bund": 27265,
  "ʊ": 1132,
  "##ว": 29955,
  "##ci": 6895,
  "proceedings": 8931,
  "##aries": 12086,
  "suits": 11072,
  "edward": 3487,
  "gripped": 9672,
  "tian": 23401,
  "sevilla": 29363,
  "196": 20035,
  "perished": 23181,
  "flood": 7186,
  "friday": 5958,
  "molten": 23548,
  "tapes": 13324,
  "119": 13285,
  "trek": 10313,
  "ς": 1172,
  "[unused8]": 9,
  "double": 3313,
  "bundesliga": 14250,
  "strung": 23509,
  "garner": 18661,
  "##太": 30338,
  "cheney": 23745,
  "circled": 14867,
  "carol": 8594,
  "exeter": 12869,
  "##kney": 26993,
  "##bbies": 27982,
  "gym": 9726,
  "##rou": 22494,
  "305": 20405,
  "middleweight": 18741,
  "admired": 12749,
  "tr": 19817,
  "##rting": 24097,
  "licenses": 15943,
  "##wd": 21724,
  "inserted": 12889,
  "kinase": 21903,
  "doubts": 13579,
  "presenters": 25588,
  "giovanni": 9136,
  "innocence": 12660,
  "greens": 15505,
  "polytechnic": 14466,
  "gifted": 12785,
  "[unused302]": 307,
  "exploring": 11131,
  "wrestlemania": 28063,
  "tramway": 17050,
  "typing": 22868,
  "～": 1995,
  "gritted": 17307,
  "slap": 14308,
  "##元": 30295,
  "##tries": 21011,
  "fault": 6346,
  "lowering": 13845,
  "##rly": 21194,
  "1815": 10679,
  "toulouse": 17209,
  "organizing": 10863,
  "=": 1027,
  "crooked": 15274,
  "side": 2217,
  "[unused842]": 847,
  "##metric": 12589,
  "##bek": 24597,
  "recordings": 5633,
  "erase": 22505,
  "infinity": 15579,
  "invasion": 5274,
  "woken": 22795,
  "albans": 26311,
  "deciduous": 22411,
  "maturity": 16736,
  "republished": 24476,
  "separating": 14443,
  "mayor": 3664,
  "akron": 22735,
  "[unused182]": 187,
  "commentaries": 21241,
  "##-": 29624,
  "##ric": 7277,
  "where": 2073,
  "extension": 5331,
  "biographies": 22056,
  "pitt": 15091,
  "influx": 18050,
  "complaints": 10821,
  "maintaining": 8498,
  "collapse": 7859,
  "interpret": 17841,
  "idle": 18373,
  "##fire": 10273,
  "specializing": 14055,
  "infected": 10372,
  "advertised": 17099,
  "certainly": 5121,
  "regards": 12362,
  "super": 3565,
  "##fm": 16715,
  "chuckle": 15375,
  "protested": 11456,
  "embedded": 11157,
  "##dgets": 28682,
  "develop": 4503,
  "##ナ": 30241,
  "##zoo": 23221,
  "universidad": 16501,
  "[unused159]": 164,
  "sociology": 11507,
  "provide": 3073,
  "##rse": 22573,
  "##mc": 12458,
  "torres": 13101,
  "sacrifices": 18502,
  "tod": 28681,
  "m2": 25525,
  "venues": 9356,
  "γ": 1157,
  "possesses": 14882,
  "defeating": 6324,
  "##rdon": 28176,
  "##yte": 17250,
  "rushed": 6760,
  "[unused822]": 827,
  "##jad": 27875,
  "kidding": 12489,
  "55th": 29075,
  "##ant": 4630,
  "showered": 23973,
  "upwards": 14873,
  "griffin": 9258,
  "engraving": 23501,
  "taps": 25316,
  "##ƒ": 29675,
  "honors": 7836,
  "##疒": 30439,
  "roasted": 28115,
  "garcia": 7439,
  "until": 2127,
  "filmfare": 25648,
  "promotes": 14067,
  "##bah": 24206,
  "drugged": 25483,
  "1699": 28718,
  "cattle": 7125,
  "###": 29614,
  "[unused301]": 306,
  "tun": 27112,
  "##kova": 18810,
  "umar": 27981,
  "arab": 5424,
  "groan": 13001,
  "tent": 9311,
  "##xious": 25171,
  "rings": 7635,
  "brianna": 25558,
  "rpm": 11575,
  "dealing": 7149,
  "43rd": 25747,
  "blended": 19803,
  "##uration": 18924,
  "prison": 3827,
  "overshadowed": 28604,
  "binding": 8031,
  "both": 2119,
  "franco": 9341,
  "##bbon": 27684,
  "##finder": 23695,
  "##hausen": 13062,
  "partnership": 5386,
  "failures": 15428,
  "cd": 3729,
  "##ype": 18863,
  "linear": 7399,
  "jocelyn": 23786,
  "measurements": 11702,
  "upheld": 16813,
  "intercepted": 16618,
  "collision": 12365,
  "enroll": 25612,
  "key": 3145,
  "tutor": 14924,
  "atm": 27218,
  "##永": 30422,
  "ridge": 5526,
  "##nine": 19105,
  "##ggio": 20650,
  "sweeps": 26981,
  "cap": 6178,
  "concentrate": 10152,
  "samantha": 11415,
  "##ও": 29888,
  "[unused324]": 329,
  "##ress": 8303,
  "triggers": 27099,
  "their": 2037,
  "lagos": 16738,
  "chosen": 4217,
  "substrate": 16305,
  "##夫": 30339,
  "consciousness": 8298,
  "dwellers": 28857,
  "esteem": 19593,
  "##45": 19961,
  "activities": 3450,
  "medial": 23828,
  "pp": 4903,
  "##秀": 30454,
  "sharpened": 26694,
  "##ي": 14498,
  "[unused586]": 591,
  "##ul": 5313,
  "predicted": 10173,
  "absolutely": 7078,
  "[unused685]": 690,
  "choking": 18329,
  "vichy": 29177,
  "canadians": 16485,
  "cindy": 15837,
  "##坂": 30329,
  "fielded": 20988,
  "taken": 2579,
  "indianapolis": 9506,
  "ν": 1167,
  "##།": 29961,
  "meant": 3214,
  "sector": 4753,
  "admire": 19837,
  "themed": 11773,
  "cardiac": 15050,
  "bounded": 10351,
  "##dling": 14423,
  "valerie": 14264,
  "basha": 26074,
  "beach": 3509,
  "humorous": 14742,
  "[unused386]": 391,
  "##ии": 15414,
  "##ette": 7585,
  "dominican": 10104,
  "##uer": 13094,
  "possessions": 13689,
  "seating": 10747,
  "31st": 17089,
  "specification": 12827,
  "contradictory": 27894,
  "burial": 8940,
  "belts": 18000,
  "##»": 29663,
  "horatio": 27752,
  "creed": 16438,
  "stadium": 3346,
  "shareholders": 15337,
  "##yl": 8516,
  "provinces": 6941,
  "suv": 15620,
  "stylized": 19551,
  "glowing": 10156,
  "bwv": 23860,
  "##ston": 7106,
  "dissent": 24116,
  "shielded": 25474,
  "1692": 28622,
  "crossing": 5153,
  "##rigues": 22934,
  "imply": 19515,
  "decca": 21079,
  "##jah": 18878,
  "##mbling": 29256,
  "国": 1799,
  "[unused250]": 255,
  "signals": 7755,
  "forum": 7057,
  "秋": 1929,
  "flotilla": 17150,
  "stray": 15926,
  "##д": 29742,
  "cab": 9298,
  "dense": 9742,
  "perpetrators": 27675,
  "databases": 17881,
  "caucasian": 23368,
  "auf": 21200,
  "against": 2114,
  "kettle": 22421,
  "ख": 1316,
  "priscilla": 25193,
  "presiding": 18131,
  "smashwords": 25151,
  "[unused778]": 783,
  "abdomen": 13878,
  "##lla": 4571,
  "##ffey": 24513,
  "glover": 20012,
  "sect": 17831,
  "attracting": 15411,
  "turn": 2735,
  "persona": 16115,
  "noting": 9073,
  "##面": 30502,
  "generous": 12382,
  "gunner": 14850,
  "##宣": 30349,
  "##oth": 14573,
  "##haus": 13821,
  "roc": 21326,
  "lumber": 13891,
  "alexander": 3656,
  "axis": 8123,
  "##dote": 23681,
  "doctorate": 8972,
  "perch": 21836,
  "timbers": 26238,
  "nec": 26785,
  "expenses": 11727,
  "[unused162]": 167,
  "supervision": 10429,
  "antiques": 27763,
  "product": 4031,
  "##cts": 16649,
  "cupboard": 25337,
  "points": 2685,
  "tightened": 8371,
  "wealthiest": 27809,
  "mediation": 26435,
  "robots": 13507,
  "##graphy": 12565,
  "cemeteries": 20973,
  "henrietta": 20775,
  "admit": 6449,
  "##houses": 15666,
  "##ة": 19433,
  "cuckoo": 29010,
  "odds": 10238,
  "##न": 29863,
  "[PAD]": 0,
  "##life": 15509,
  "protectorate": 20394,
  "heller": 25038,
  "##berries": 20968,
  "hitting": 7294,
  "jessica": 8201,
  "2013": 2286,
  "cartridges": 22998,
  "[unused176]": 181,
  "teens": 13496,
  "spielberg": 28740,
  "taekwondo": 28529,
  "operatic": 22534,
  "danish": 5695,
  "[unused761]": 766,
  "these": 2122,
  "##=": 29630,
  "coast": 3023,
  "rather": 2738,
  "##tma": 29418,
  "##har": 8167,
  "##ᵉ": 30035,
  "enhance": 11598,
  "laid": 4201,
  "##ibly": 17296,
  "ride": 4536,
  "[unused13]": 14,
  "actor": 3364,
  "坂": 1803,
  "ɡ": 1116,
  "lin": 11409,
  "##aki": 8978,
  "sears": 18493,
  "christchurch": 15880,
  "refuse": 10214,
  "worcester": 12539,
  "1842": 10008,
  "noticeably": 25327,
  "##train": 23654,
  "excursion": 26144,
  "blindly": 25734,
  "composer": 4543,
  "caliph": 22733,
  "##icle": 25128,
  "##ʌ": 29700,
  "relief": 4335,
  "subsidiary": 7506,
  "hazards": 22010,
  "##sta": 9153,
  "[unused22]": 23,
  "##rave": 22401,
  "darkened": 13755,
  "261": 24441,
  "clap": 28618,
  "##hered": 27190,
  "70": 3963,
  "323": 25392,
  "##werk": 29548,
  "inflation": 14200,
  "aide": 14895,
  "accolades": 27447,
  "spite": 8741,
  "voters": 7206,
  "##tead": 14565,
  "christophe": 23978,
  "aggressively": 24663,
  "climates": 24734,
  "raging": 17559,
  "135": 11502,
  "readily": 12192,
  "3a": 23842,
  "babe": 11561,
  "lethal": 12765,
  "ja": 14855,
  "included": 2443,
  "rotational": 25254,
  "sloppy": 28810,
  "##roved": 26251,
  "discretion": 19258,
  "pi": 14255,
  "calendar": 8094,
  "floral": 18686,
  "##lish": 13602,
  "neolithic": 19061,
  "##kker": 23793,
  "ronan": 18633,
  "##lian": 15204,
  "ok": 7929,
  "##rization": 26910,
  "arrangement": 6512,
  "nominee": 9773,
  "##stead": 25647,
  "maker": 9338,
  "sixteen": 7032,
  "##§": 29650,
  "labs": 13625,
  "unfamiliar": 16261,
  "forming": 5716,
  "horseshoe": 23449,
  "poe": 18922,
  "museo": 19713,
  "kincaid": 24510,
  "##lta": 24458,
  "##ɴ": 29690,
  "resembles": 12950,
  "farmer": 7500,
  "hobart": 14005,
  "couples": 6062,
  "kaitlyn": 28584,
  "愛": 1853,
  "belarus": 12545,
  "butter": 12136,
  "consortium": 12360,
  "faded": 8105,
  "montana": 8124,
  "hellenic": 23122,
  "##user": 20330,
  "abduction": 23415,
  "##nius": 20447,
  "wry": 24639,
  "consult": 23363,
  "bank": 2924,
  "sensory": 16792,
  "commissioners": 12396,
  "##ifer": 23780,
  "pattern": 5418,
  "sensation": 8742,
  "hips": 6700,
  "nagoya": 24425,
  "manny": 16320,
  "argument": 6685,
  "orr": 26914,
  "##nburg": 22642,
  "moans": 24675,
  "fidelity": 22625,
  "reluctantly": 11206,
  "##vili": 21661,
  "brewster": 23009,
  "texas": 3146,
  "requiem": 21199,
  "rapidly": 5901,
  "##ctuated": 25638,
  "integrating": 22380,
  "##kir": 23630,
  "locality": 10246,
  "salty": 23592,
  "cosmos": 21182,
  "ancestors": 10748,
  "bu": 20934,
  "##liness": 20942,
  "snooker": 26448,
  "65": 3515,
  "tactic": 19717,
  "complement": 13711,
  "bites": 15424,
  "alan": 5070,
  "〉": 1638,
  "respects": 17475,
  "tanaka": 21829,
  "##br": 19892,
  "psychology": 6825,
  "legislator": 22964,
  "##rani": 21578,
  "16": 2385,
  "veterans": 8244,
  "vertebrae": 25517,
  "showcased": 22443,
  "guerra": 24698,
  "standards": 4781,
  "##plicity": 27293,
  "##icon": 28524,
  "jimmie": 24671,
  "fingered": 28842,
  "hire": 10887,
  "281": 22955,
  "ate": 8823,
  "##gles": 17125,
  "francisco": 3799,
  "francaise": 18427,
  "rat": 9350,
  "##atory": 14049,
  "disturbing": 14888,
  "##ß": 19310,
  "airs": 14369,
  "pa": 6643,
  "accommodation": 11366,
  "pre": 3653,
  "cry": 5390,
  "##iction": 28097,
  "whatsoever": 18971,
  "analogue": 21800,
  "sentinel": 16074,
  "##arian": 12199,
  "hopped": 17230,
  "##te": 2618,
  "lanterns": 26078,
  "1875": 7466,
  "##river": 24352,
  "airline": 8582,
  "shuttle": 10382,
  "winchester": 12841,
  "pricing": 20874,
  "tome": 21269,
  "anchorage": 21086,
  "jozef": 23258,
  "tragic": 13800,
  "##mate": 8585,
  "longitudinal": 20134,
  "[unused825]": 830,
  "whip": 11473,
  "niche": 18111,
  "malawi": 18137,
  "withstand": 19319,
  "thesis": 9459,
  "ventilation": 19536,
  "##ᅵ": 30019,
  "##uc": 14194,
  "[unused702]": 707,
  "finding": 4531,
  "##iz": 10993,
  "blackberry": 25935,
  "##uary": 24384,
  "fastest": 7915,
  "mathias": 20494,
  "sumatra": 18262,
  "emerson": 12628,
  "helium": 22764,
  "orders": 4449,
  "clockwise": 22839,
  "##⊗": 30140,
  "##ᆷ": 30023,
  "[unused764]": 769,
  "##iani": 25443,
  "seafood": 23621,
  "大": 1810,
  "##ibar": 26656,
  "dyke": 22212,
  "aspirations": 22877,
  "##claim": 25154,
  "scent": 6518,
  "##phobia": 24920,
  "naga": 26539,
  "endure": 18094,
  "[unused986]": 991,
  "se": 7367,
  "completing": 7678,
  "fruit": 5909,
  "provided": 3024,
  "##lovic": 29356,
  "brit": 28101,
  "gestapo": 26446,
  "proof": 6947,
  "[unused309]": 314,
  "bearded": 23905,
  "saturn": 14784,
  "experienced": 5281,
  "##ך": 29797,
  "restarted": 25606,
  "mare": 11941,
  "tremor": 27734,
  "caressed": 21473,
  "##cat": 11266,
  "hayward": 21506,
  "པ": 1430,
  "chao": 22455,
  "does": 2515,
  "1773": 19916,
  "juris": 27551,
  "companies": 3316,
  "beaumont": 16210,
  "##havan": 24652,
  "emissions": 11768,
  "司": 1791,
  "[unused41]": 42,
  "douglas": 5203,
  "waist": 5808,
  "miserable": 13736,
  "##ev": 6777,
  "方": 1863,
  "fergus": 21023,
  "navigable": 28538,
  "##chio": 23584,
  "repairs": 10315,
  "diagonal": 19754,
  "##plex": 19386,
  "geschichte": 28299,
  "paralympics": 15600,
  "[unused283]": 288,
  "renovated": 10601,
  "appropriately": 23263,
  "##vi": 5737,
  "##hd": 14945,
  "brothers": 3428,
  "257": 24368,
  "confined": 12302,
  "corpses": 18113,
  "dared": 15048,
  "##♠": 30150,
  "cars": 3765,
  "persisted": 19035,
  "sunni": 18883,
  "labour": 4428,
  "jagger": 25827,
  "##eller": 24038,
  "patti": 22732,
  "##σ": 29733,
  "estimates": 10035,
  "ferrara": 28635,
  "replaced": 2999,
  "reproduce": 21376,
  "rivalry": 10685,
  "##hawk": 17998,
  "leopard": 16240,
  "kings": 5465,
  "merchandise": 16359,
  "gasped": 8535,
  "cromwell": 16759,
  "##iel": 9257,
  "##sd": 16150,
  "relocation": 18344,
  "1799": 13839,
  "fatty": 19101,
  "northampton": 15944,
  "elijah": 14063,
  "victorian": 6652,
  "banco": 28678,
  "wrapping": 12252,
  "+": 1009,
  "tug": 12888,
  "managerial": 24465,
  "patch": 8983,
  "##onga": 26356,
  "[unused705]": 710,
  "flinch": 23224,
  "resurgence": 26303,
  "1632": 28216,
  "rosalie": 29564,
  "##њ": 29763,
  "melancholy": 22247,
  "dioxide": 14384,
  "##uw": 25974,
  "landing": 4899,
  "##ক": 29889,
  "menace": 19854,
  "##lars": 28695,
  "bye": 9061,
  "hesitated": 9369,
  "sorbonne": 28452,
  "##tory": 7062,
  "marsden": 29558,
  "shoes": 6007,
  "woodlands": 19268,
  "##boats": 19468,
  "##orio": 27416,
  "parent": 6687,
  "##cture": 14890,
  "rustic": 27471,
  "##leton": 19263,
  "distant": 6802,
  "refit": 27070,
  "1644": 23477,
  "##orne": 23846,
  "coined": 13279,
  "proves": 16481,
  "cycles": 12709,
  "##ts": 3215,
  "nmi": 22484,
  "adelaide": 7364,
  "rudd": 25298,
  "地": 1802,
  "orbit": 8753,
  "anatomy": 13336,
  "severn": 24753,
  "estrada": 26482,
  "denial": 14920,
  "tariffs": 26269,
  "holiness": 27692,
  "##ɾ": 29692,
  "labyrinth": 24239,
  "18th": 4985,
  "aisle": 12485,
  "macedonian": 13037,
  "##dh": 16425,
  "painted": 4993,
  "[unused307]": 312,
  "##ication": 21261,
  "even": 2130,
  "pledged": 16970,
  "malone": 16321,
  "##boat": 11975,
  "exceeding": 17003,
  "##avia": 15164,
  "##cken": 19766,
  "entirely": 4498,
  "tossing": 15021,
  "158": 17696,
  "facts": 8866,
  "##lik": 18393,
  "usable": 24013,
  "##す": 30184,
  "charlotte": 5904,
  "play": 2377,
  "scrap": 15121,
  "counties": 5721,
  "scratches": 25980,
  "leighton": 26873,
  "##folk": 29284,
  "dogg": 28844,
  "aesthetic": 12465,
  "crashes": 19119,
  "horrors": 22812,
  "folklore": 13104,
  "tea": 5572,
  "facilities": 4128,
  "barrage": 19359,
  "orb": 19607,
  "tolerance": 13986,
  "stimulate": 23216,
  "##aldi": 24657,
  "stepped": 3706,
  "radial": 15255,
  "ravi": 16806,
  "147": 16471,
  "hoarse": 21221,
  "chocolate": 7967,
  "meets": 6010,
  "harriet": 14207,
  "vii": 8890,
  "jump": 5376,
  "gallon": 25234,
  "orange": 4589,
  "benito": 23595,
  "strange": 4326,
  "quartz": 20971,
  "unions": 9209,
  "bahadur": 21715,
  "myriad": 25028,
  "♣": 1624,
  "bahamas": 17094,
  "aquino": 24183,
  "conserved": 19995,
  "probably": 2763,
  "bradford": 9999,
  "exclusive": 7262,
  "maintains": 9319,
  "sadly": 13718,
  "apical": 29197,
  "exile": 8340,
  "mona": 13813,
  "waistband": 27553,
  "dominion": 13738,
  "belt": 5583,
  "sends": 10255,
  "##ssed": 29417,
  "schumann": 29448,
  "homestead": 14473,
  "branching": 23346,
  "cpu": 17368,
  "sampson": 22041,
  "##ා": 29944,
  "evangelical": 11295,
  "vimes": 28482,
  "ষ": 1375,
  "№": 1578,
  "##uk": 6968,
  "spiral": 12313,
  "backpack": 13383,
  "marin": 16400,
  "spent": 2985,
  "survived": 5175,
  "character": 2839,
  "barking": 19372,
  "promotional": 10319,
  "##ɔ": 29679,
  "##内": 30299,
  "##iec": 23783,
  "statements": 8635,
  "softly": 5238,
  "shining": 9716,
  "flooding": 9451,
  "[unused843]": 848,
  "madrid": 6921,
  "raf": 7148,
  "##tate": 12259,
  "##kovsky": 23829,
  "dime": 27211,
  "axel": 18586,
  "corrupt": 13593,
  "caldwell": 16589,
  "##plate": 15725,
  "331": 27533,
  "capital": 3007,
  "cognitive": 10699,
  "target": 4539,
  "lead": 2599,
  "gaunt": 27534,
  "routing": 16972,
  "lara": 13679,
  "2007": 2289,
  "tipperary": 17333,
  "##ates": 8520,
  "notable": 3862,
  "cleared": 5985,
  "storms": 12642,
  "発": 1914,
  "cooking": 8434,
  "±": 1081,
  "condom": 20910,
  "##weight": 11179,
  "##quitable": 28298,
  "maya": 9815,
  "##poo": 24667,
  "pleasures": 26552,
  "gleam": 24693,
  "rewards": 19054,
  "都": 1961,
  "ranked": 4396,
  "shrug": 13409,
  "subject": 3395,
  "scarlett": 20862,
  "regimental": 17604,
  "[unused726]": 731,
  "##tto": 9284,
  "upside": 14961,
  "stations": 3703,
  "apr": 19804,
  "mischievous": 25723,
  "##cius": 25393,
  "##nium": 14907,
  "comeback": 12845,
  "##adan": 26335,
  "assembled": 9240,
  "injuring": 22736,
  "interrupting": 22602,
  "breasts": 12682,
  "convicted": 7979,
  "manuscript": 8356,
  "gershwin": 25600,
  "priestess": 27677,
  "maintained": 5224,
  "cried": 6639,
  "##sr": 21338,
  "##cian": 14483,
  "opportunities": 6695,
  "[unused144]": 149,
  "##س": 29824,
  "analyses": 16478,
  "moravian": 28131,
  "skier": 21294,
  "groaning": 24781,
  "[unused528]": 533,
  "bailey": 8925,
  "mc": 11338,
  "cares": 14977,
  "julien": 19290,
  "kidney": 14234,
  "[unused815]": 820,
  "1634": 28502,
  "cavalry": 5945,
  "[unused527]": 532,
  "overall": 3452,
  "hardware": 8051,
  "doncaster": 18895,
  "gabe": 12900,
  "planck": 26486,
  "overcame": 26463,
  "peppers": 23582,
  "expecting": 8074,
  "##か": 30177,
  "sw": 25430,
  "stink": 27136,
  "silky": 18848,
  "##eson": 21421,
  "1892": 6527,
  "bids": 20723,
  "trinidad": 11856,
  "##bn": 24700,
  "kilometres": 3717,
  "[unused266]": 271,
  "morris": 6384,
  "fan": 5470,
  "##chuk": 26516,
  "household": 4398,
  "tag": 6415,
  "explorers": 19264,
  "conan": 16608,
  "alright": 10303,
  "##26": 23833,
  "opera": 3850,
  "enhancement": 22415,
  "##v": 2615,
  "intend": 13566,
  "cypriot": 18543,
  "wang": 7418,
  "##sea": 17310,
  "curiously": 16484,
  "foreign": 3097,
  "conceded": 15848,
  "banking": 8169,
  "rude": 12726,
  "##б": 29740,
  "##i": 2072,
  "pills": 15345,
  "ever": 2412,
  "warwickshire": 18430,
  "kramer": 16322,
  "##owa": 21293,
  "fuji": 20933,
  "##ire": 7442,
  "premature": 21371,
  "cinder": 29399,
  "packet": 14771,
  "moi": 25175,
  "vaughan": 14461,
  "ellison": 21513,
  "₃": 1550,
  "inspector": 7742,
  "##iga": 13340,
  "bulky": 27446,
  "203": 18540,
  "spurred": 22464,
  "transcribed": 26223,
  "interpreter": 19555,
  "##7": 2581,
  "prussian": 10734,
  "chung": 15972,
  "get": 2131,
  "improving": 9229,
  "##པ": 29966,
  "##mania": 27010,
  "messing": 22308,
  "##odon": 28716,
  "divert": 27345,
  "fulfilling": 21570,
  "austen": 24177,
  "level": 2504,
  "##aster": 24268,
  "expectations": 10908,
  "were": 2020,
  "kin": 12631,
  "throughout": 2802,
  "hugo": 9395,
  "vegetables": 11546,
  "##aya": 12186,
  "progressing": 27673,
  "torque": 15894,
  "liza": 20503,
  "allegiance": 14588,
  "barker": 12852,
  "northward": 17192,
  "##hane": 28006,
  "##ata": 6790,
  "perrin": 28106,
  "inspired": 4427,
  "parachute": 13561,
  "statutory": 15201,
  "##খ": 29890,
  "caledonia": 19305,
  "##59": 28154,
  "rory": 14285,
  "lao": 18805,
  "##な": 30193,
  "tornado": 11352,
  "interfaces": 19706,
  "quan": 24110,
  "kia": 27005,
  "真": 1921,
  "deeply": 6171,
  "##bard": 21458,
  "##aar": 26526,
  "course": 2607,
  "##red": 5596,
  "[unused29]": 30,
  "punta": 27377,
  "moroccan": 17494,
  "同": 1794,
  "muzzle": 17750,
  "dans": 18033,
  "roadway": 18799,
  "sells": 15187,
  "[unused453]": 458,
  "characterization": 23191,
  "##rum": 6824,
  "loaned": 13190,
  "##軍": 30481,
  "[unused893]": 898,
  "##λ": 29727,
  "trickle": 26027,
  "incomplete": 12958,
  "hari": 21291,
  "##amine": 19915,
  "report": 3189,
  "##onte": 28040,
  "germans": 7074,
  "puerto": 5984,
  "roam": 25728,
  "birds": 5055,
  "hartman": 26766,
  "romans": 10900,
  "##unciation": 24101,
  "madly": 29179,
  "angled": 18756,
  "buried": 3950,
  "ョ": 1730,
  "##ி": 29932,
  "starting": 3225,
  "electrically": 29103,
  "crushing": 14527,
  "stony": 16104,
  "allows": 4473,
  "upgraded": 9725,
  "jealous": 9981,
  "bowing": 26690,
  "hundreds": 5606,
  "∩": 1604,
  "appreciated": 12315,
  "giuseppe": 12574,
  "wedding": 5030,
  "approximate": 15796,
  "nz": 20008,
  "##orum": 20527,
  "coming": 2746,
  "refer": 6523,
  "jamie": 6175,
  "mixed": 3816,
  "##rrick": 24999,
  "banging": 22255,
  "circle": 4418,
  "##gens": 21230,
  "asiatic": 23983,
  "neptune": 21167,
  "fulham": 21703,
  "##oun": 23709,
  "金": 1964,
  "laos": 15786,
  "nor": 4496,
  "##mism": 26725,
  "offenses": 25173,
  "manuel": 7762,
  "dt": 26718,
  "fed": 7349,
  "truncated": 25449,
  "advising": 23875,
  "[unused645]": 650,
  "##rise": 29346,
  "clown": 15912,
  "##land": 3122,
  "reducing": 8161,
  "[unused135]": 140,
  "##gnant": 27881,
  "1930": 4479,
  "dream": 3959,
  "auspices": 20153,
  "theo": 14833,
  "ross": 5811,
  "##fe": 7959,
  "sean": 5977,
  "compensation": 9430,
  "tease": 18381,
  "[unused657]": 662,
  "technologies": 6786,
  "##ten": 6528,
  "espionage": 21003,
  "dumont": 25830,
  "closely": 4876,
  "phd": 8065,
  "branded": 11180,
  "##arable": 25236,
  "lightly": 8217,
  "jade": 12323,
  "80s": 16002,
  "necks": 26082,
  "situations": 8146,
  "##ely": 26006,
  "ganga": 28646,
  "swirling": 16499,
  "##rized": 18425,
  "##rden": 18246,
  "bored": 11471,
  "masonry": 18103,
  "##bc": 9818,
  "sued": 12923,
  "[unused759]": 764,
  "gulped": 25411,
  "nitrate": 29607,
  "##zee": 23940,
  "rigid": 11841,
  "57": 5401,
  "##bial": 21102,
  "punjab": 9213,
  "filming": 7467,
  "##erik": 27350,
  "virgil": 17270,
  "##[": 29634,
  "gazed": 11114,
  "amore": 26297,
  "geologic": 22125,
  "jonah": 15617,
  "biennial": 20313,
  "##zed": 5422,
  "marge": 25532,
  "conde": 24707,
  "[unused559]": 564,
  "mrna": 28848,
  "outcome": 9560,
  "hardy": 9532,
  "broadcasts": 8960,
  "admitting": 17927,
  "administer": 21497,
  "cf": 12935,
  "##ears": 26492,
  "trusting": 19836,
  "duck": 9457,
  "せ": 1659,
  "belle": 9852,
  "ю": 1209,
  "ᶜ": 1511,
  "[unused880]": 885,
  "##φ": 29736,
  "happened": 3047,
  "parliament": 3323,
  "##physics": 15638,
  "##ი": 29981,
  "334": 29562,
  "beheaded": 28923,
  "boulder": 13264,
  "fatigue": 16342,
  "operatives": 25631,
  "fission": 27521,
  "associated": 3378,
  "commission": 3222,
  "き": 1652,
  "##aba": 19736,
  "film": 2143,
  "constructions": 21913,
  "scanning": 13722,
  "470": 21064,
  "anders": 15387,
  "##combe": 14149,
  "creeks": 24974,
  "မ": 1437,
  "change": 2689,
  "payne": 13470,
  "resultant": 28573,
  "horrified": 14603,
  "spike": 9997,
  "lynx": 22636,
  "presentation": 8312,
  "widely": 4235,
  "auckland": 8666,
  "replay": 15712,
  "buckinghamshire": 21712,
  "##sser": 18116,
  "curt": 20099,
  "nods": 11232,
  "spill": 14437,
  "##istan": 23137,
  "playful": 18378,
  "##ᆼ": 30025,
  "##tyn": 25680,
  "governmental": 10605,
  "[unused644]": 649,
  "##erated": 16848,
  "[unused834]": 839,
  "regularly": 5570,
  "##tl": 19646,
  "##ulsion": 23316,
  "##abas": 27537,
  "xu": 15990,
  "night": 2305,
  "telugu": 12180,
  "##ieving": 25587,
  "naughty": 20355,
  "privy": 14452,
  "referees": 25118,
  "freeing": 22198,
  "shoulder": 3244,
  "backgrounds": 15406,
  "cambridge": 4729,
  "syria": 7795,
  "##logist": 10727,
  "jones": 3557,
  "vaulted": 24616,
  "visions": 12018,
  "1600": 14883,
  "reflected": 7686,
  "##tonic": 25009,
  "vibe": 21209,
  "sonora": 26647,
  "##pw": 28400,
  "click": 11562,
  "ᵉ": 1499,
  "sweetheart": 12074,
  "406": 27433,
  "dreamed": 13830,
  "available": 2800,
  "understood": 5319,
  "shares": 6661,
  "discharge": 11889,
  "sweets": 26844,
  "secrecy": 20259,
  "vanguard": 18332,
  "stores": 5324,
  "##eno": 16515,
  "imp": 17727,
  "crept": 13147,
  "halo": 17201,
  "concern": 5142,
  "asahi": 29465,
  "intensity": 8015,
  "##blood": 26682,
  "corporations": 11578,
  "##np": 16275,
  "buddies": 24115,
  "jars": 25067,
  "##ভ": 29905,
  "breathless": 16701,
  "##bby": 14075,
  "1802": 13515,
  "##boot": 27927,
  "aching": 14750,
  "various": 2536,
  "promoter": 15543,
  "artefacts": 25762,
  "defeated": 3249,
  "elites": 27021,
  "##jure": 25243,
  "##kki": 24103,
  "208": 18512,
  "event": 2724,
  "flying": 3909,
  "messenger": 11981,
  "##amy": 24079,
  "basque": 13915,
  "[unused180]": 185,
  "sparhawk": 13709,
  "##eria": 11610,
  "##riam": 25557,
  "andy": 5557,
  "depot": 8470,
  "##eh": 11106,
  "mocked": 24195,
  "##sko": 21590,
  "retain": 9279,
  "##cino": 21081,
  "academies": 20994,
  "baskets": 25946,
  "##bach": 7693,
  "irritating": 29348,
  "volcanic": 10942,
  "markus": 23030,
  "##tem": 18532,
  "portuguese": 5077,
  "restrictions": 9259,
  "[unused582]": 587,
  "shetland": 25552,
  "generated": 7013,
  "afterlife": 25115,
  "340": 16029,
  "ᄅ": 1458,
  "snacks": 27962,
  "whispering": 13550,
  "intake": 13822,
  "accounting": 9529,
  "##rgen": 25892,
  "junta": 22450,
  "cake": 9850,
  "rockwell": 25235,
  "condemn": 28887,
  "[unused60]": 61,
  "dobson": 27679,
  "icon": 12696,
  "colony": 5701,
  "rampant": 25883,
  "moshe": 27123,
  "prepared": 4810,
  "evident": 10358,
  "realities": 22213,
  "creatures": 7329,
  "ulrich": 19619,
  "informed": 6727,
  "starving": 18025,
  "permanently": 8642,
  "##瀬": 30431,
  "versus": 6431,
  "checking": 9361,
  "##ards": 18117,
  "##ice": 6610,
  "climate": 4785,
  "pack": 5308,
  "dartmouth": 16960,
  "apostles": 19178,
  "郡": 1959,
  "bow": 6812,
  "reply": 7514,
  "aspects": 5919,
  "blinding": 19709,
  "relates": 14623,
  "belonging": 7495,
  "##ingdon": 29138,
  "calgary": 10112,
  "sexes": 21024,
  "genuinely": 15958,
  "##olved": 16116,
  "mutation": 16221,
  "lands": 4915,
  "142": 16087,
  "pulitzer": 17618,
  "welles": 23447,
  "sleep": 3637,
  "302": 22060,
  "[unused462]": 467,
  "announcing": 13856,
  "lifted": 4196,
  "ை": 1399,
  "fully": 3929,
  "entrepreneurship": 20213,
  "latter": 3732,
  "##ffled": 28579,
  "##vil": 14762,
  "tale": 6925,
  "##ehan": 24660,
  "medieval": 5781,
  "invariant": 23915,
  "arose": 10375,
  "trim": 12241,
  "##ologies": 20792,
  "ashamed": 14984,
  "##ott": 14517,
  "explanation": 7526,
  "correctly": 11178,
  "1980s": 3865,
  "oklahoma": 5858,
  "practices": 6078,
  "##ffie": 29055,
  "stretched": 7121,
  "doe": 18629,
  "controlling": 9756,
  "procedure": 7709,
  "##eville": 21187,
  "detainees": 26485,
  "cessna": 27664,
  "anthropological": 28395,
  "anne": 4776,
  "[unused427]": 432,
  "duties": 5704,
  "hearst": 25419,
  "southend": 26104,
  "cannon": 8854,
  "marries": 19941,
  "##cating": 18252,
  "chickens": 21868,
  "airfields": 25278,
  "battled": 19787,
  "spencer": 7084,
  "phrases": 15672,
  "narratives": 22143,
  "lexi": 16105,
  "##baum": 14898,
  "shankar": 17429,
  "##nity": 22758,
  "男": 1912,
  "reader": 8068,
  "cerebral": 18439,
  "##ulously": 21227,
  "iowa": 5947,
  "##anal": 27953,
  "fairchild": 24258,
  "screenings": 25437,
  "airplay": 15341,
  "1891": 6607,
  "##נ": 29803,
  "polymers": 27216,
  "scar": 11228,
  "##№": 30106,
  "425": 23285,
  "scare": 12665,
  "##eptive": 22048,
  "fragmentation": 28424,
  "rudolf": 12794,
  "##ன": 29923,
  "nad": 23233,
  "235": 17825,
  "soc": 27084,
  "gaddafi": 28924,
  "bodied": 22549,
  "fishing": 5645,
  "fertile": 14946,
  "##irus": 26013,
  "shown": 3491,
  "puzzles": 19672,
  "##ी": 29878,
  "compass": 16681,
  "altering": 22552,
  "faa": 17032,
  "beg": 11693,
  "coca": 16787,
  "subdistrict": 24150,
  "addition": 2804,
  "##.": 29625,
  "duel": 14216,
  "comedy": 4038,
  "[unused741]": 746,
  "frowns": 29303,
  "staircase": 10714,
  "ಾ": 1402,
  "stretches": 14082,
  "##db": 18939,
  "[unused866]": 871,
  "outright": 13848,
  "##utnant": 24620,
  "##rks": 19987,
  "restricting": 26996,
  "##ster": 6238,
  "recoil": 27429,
  "augusta": 13635,
  "fifties": 25942,
  "##llins": 26655,
  "explosives": 14792,
  "ᆸ": 1488,
  "anyone": 3087,
  "o": 1051,
  "##ъ": 29755,
  "adapting": 25357,
  "fitz": 27706,
  "##lifting": 26644,
  "##42": 20958,
  "suggesting": 9104,
  "rms": 29311,
  "ramon": 12716,
  "airports": 13586,
  "featherweight": 27145,
  "emeritus": 12372,
  "somber": 28587,
  "servants": 8858,
  "##ins": 7076,
  "defamation": 27652,
  "[unused299]": 304,
  "merton": 28169,
  "atoll": 22292,
  "converts": 19884,
  "##dium": 12811,
  "meanings": 15383,
  "wholesale": 17264,
  "gunnery": 27919,
  "prayer": 7083,
  "oblast": 10379,
  "beans": 13435,
  "##tis": 7315,
  "exchanged": 10573,
  "co₂": 20190,
  "sheng": 25981,
  "##व": 29871,
  "habitats": 10746,
  "##ے": 29846,
  "liking": 16663,
  "axe": 12946,
  "verde": 16184,
  "cleansing": 26799,
  "yoon": 24863,
  "£3": 28182,
  "authorized": 9362,
  "thirty": 4228,
  "##uno": 27819,
  "quiet": 4251,
  "brighton": 10309,
  "applicant": 23761,
  "##iciencies": 28227,
  "loyalists": 26590,
  "midi": 22265,
  "##oulos": 28262,
  "partisan": 14254,
  "david": 2585,
  "suggestion": 10293,
  "##biotic": 26591,
  "onwards": 9921,
  "##ana": 5162,
  "cola": 15270,
  "##aks": 29243,
  "void": 11675,
  "showed": 3662,
  "madden": 24890,
  "##icing": 23553,
  "1817": 12529,
  "reserved": 9235,
  "win": 2663,
  "offense": 10048,
  "winkler": 20472,
  "##actic": 28804,
  "republics": 24822,
  "sonya": 27926,
  "##region": 23784,
  "##”": 30059,
  "hannibal": 24181,
  "tapping": 15135,
  "huskies": 29471,
  "##ada": 8447,
  "##nidae": 29135,
  "owls": 22388,
  "napkin": 20619,
  "execute": 15389,
  "tribune": 10969,
  "membership": 5779,
  "##sted": 14701,
  "wouldn": 2876,
  "lineup": 10515,
  "call": 2655,
  "antics": 27440,
  "abnormal": 19470,
  "##ram": 6444,
  "manufactured": 7609,
  "umpire": 20887,
  "##%": 29616,
  "upgrade": 12200,
  "intercept": 19115,
  "dolphin": 17801,
  "years": 2086,
  "bone": 5923,
  "struggling": 8084,
  "##fast": 24333,
  "##十": 30309,
  "mountain": 3137,
  "inclined": 13050,
  "blink": 12373,
  "##zia": 12871,
  "sleeves": 15114,
  "parc": 27985,
  "[unused803]": 808,
  "##udy": 20217,
  "determine": 5646,
  "function": 3853,
  "grandmother": 7133,
  "accusation": 19238,
  "drove": 5225,
  "[unused239]": 244,
  "dietary": 23444,
  "nature": 3267,
  "olympiad": 25225,
  "caps": 9700,
  "barbados": 16893,
  "##ulated": 8898,
  "northbound": 20055,
  "jenkins": 11098,
  "taut": 21642,
  "swimmers": 21669,
  "focal": 15918,
  "width": 9381,
  "lenin": 17497,
  "fiscal": 10807,
  "premier": 4239,
  "onstage": 23542,
  "[unused232]": 237,
  "外": 1809,
  "springsteen": 26002,
  "suggest": 6592,
  "##quent": 15417,
  "1920s": 6641,
  "lamp": 10437,
  "##⊕": 30139,
  "failure": 4945,
  "##eri": 11124,
  "edge": 3341,
  "cyrus": 16123,
  "sic": 14387,
  "neighbor": 11429,
  "[unused397]": 402,
  "##ary": 5649,
  "mon": 12256,
  "juliet": 13707,
  "[unused984]": 989,
  "intersection": 6840,
  "correction": 18140,
  "tremble": 20627,
  "site": 2609,
  "chelsea": 9295,
  "vibrating": 24987,
  "[unused649]": 654,
  "##白": 30441,
  "estate": 3776,
  "[unused603]": 608,
  "recognize": 6807,
  "guido": 20239,
  "amounts": 8310,
  "slade": 18048,
  "columbian": 25882,
  "moving": 3048,
  "bankruptcy": 10528,
  "apostolic": 11815,
  "nakamura": 23981,
  "technological": 10660,
  "##osaurus": 25767,
  "lds": 17627,
  "1868": 7582,
  "penguin": 13987,
  "khorasan": 23225,
  "[unused858]": 863,
  "greg": 6754,
  "instincts": 16160,
  "replacements": 23936,
  "nightingale": 21771,
  "horrible": 9202,
  "broughton": 29187,
  "exceeded": 14872,
  "yale": 7996,
  "##真": 30447,
  "utah": 6646,
  "seamus": 24993,
  "perfectly": 6669,
  "leaped": 16900,
  "wurttemberg": 16346,
  "ன": 1387,
  "##abad": 10542,
  "synod": 15374,
  "picket": 28972,
  "##taro": 28160,
  "2010": 2230,
  "busy": 5697,
  "delaware": 8452,
  "##lese": 24527,
  "calabria": 29430,
  "harrington": 19760,
  "espana": 20678,
  "##ito": 9956,
  "##fields": 15155,
  "panel": 5997,
  "pete": 6969,
  "sentenced": 7331,
  "regulate": 15176,
  "units": 3197,
  "ska": 24053,
  "actresses": 19910,
  "artemis": 19063,
  "##aby": 21275,
  "fell": 3062,
  "magnum": 19691,
  "switched": 7237,
  "disused": 26958,
  "began": 2211,
  "stained": 9702,
  "##urs": 9236,
  "camille": 16675,
  "##met": 11368,
  "ब": 1329,
  "tech": 6627,
  "burroughs": 25991,
  "cameras": 8629,
  "liang": 16982,
  "careers": 10922,
  "coke": 14492,
  "##⟨": 30155,
  "writhing": 26185,
  "wheelchair": 13204,
  "signage": 29404,
  "##ally": 3973,
  "##ization": 3989,
  "mira": 18062,
  "honeymoon": 19227,
  "chords": 18495,
  "[unused79]": 80,
  "catholic": 3234,
  "##wari": 20031,
  "sofa": 10682,
  "twisting": 12814,
  "##dly": 18718,
  "##isen": 28992,
  "soviets": 15269,
  "gaul": 26522,
  "inspire": 18708,
  "flemish": 15427,
  "##tai": 15444,
  "laurel": 11893,
  "##gues": 22967,
  "montane": 21704,
  "##bola": 24290,
  "dna": 6064,
  "lots": 7167,
  "descriptions": 13271,
  "jensen": 14857,
  "vein": 12818,
  "relativity": 20805,
  "handed": 4375,
  "inline": 23881,
  "fins": 18564,
  "##vation": 21596,
  "kurdistan": 23627,
  "postgraduate": 15438,
  "ᄏ": 1466,
  "qualities": 11647,
  "103": 9800,
  "swat": 25414,
  "##pkins": 29531,
  "vaguely": 15221,
  "hands": 2398,
  "bois": 19651,
  "brushing": 12766,
  "##co": 3597,
  "[unused574]": 579,
  "transparency": 16987,
  "##olf": 28027,
  "fought": 4061,
  "rca": 12639,
  "##minating": 27932,
  "revived": 10570,
  "[unused143]": 148,
  "she": 2016,
  "audi": 20075,
  "л": 1190,
  "donald": 6221,
  "donkey": 20325,
  "collections": 6407,
  "##market": 20285,
  "##tp": 25856,
  "pulled": 2766,
  "sprinted": 25156,
  "elevators": 19406,
  "livingston": 14109,
  "bilateral": 17758,
  "reporter": 6398,
  "delilah": 23006,
  "empress": 10248,
  "hackney": 28425,
  "biology": 7366,
  "hung": 5112,
  "insulted": 23637,
  "affectionately": 28734,
  "##₅": 30081,
  "handkerchief": 23975,
  "implicit": 24655,
  "trailer": 9117,
  "implementation": 7375,
  "प": 1328,
  "erection": 13760,
  "monte": 10125,
  "phase": 4403,
  "surgeon": 9431,
  "##gm": 21693,
  "carbon": 6351,
  "trees": 3628,
  "enjoyment": 20195,
  "##una": 9521,
  "transgender": 16824,
  "nearer": 20388,
  "finalized": 23575,
  "ո": 1232,
  "pending": 14223,
  "artifacts": 10471,
  "attacker": 17346,
  "[unused884]": 889,
  "21st": 7398,
  "easiest": 25551,
  "crested": 25413,
  "marko": 28003,
  "##zell": 24085,
  "stocked": 24802,
  "engravings": 28611,
  "132": 14078,
  "tulane": 27437,
  "aftermath": 10530,
  "flag": 5210,
  "radiant": 23751,
  "upstream": 13909,
  "mustard": 23187,
  "proclamation": 16413,
  "27": 2676,
  "melvin": 20993,
  "kyle": 7648,
  "brant": 29182,
  "belongings": 20033,
  "councils": 10784,
  "##iidae": 15648,
  "ล": 1418,
  "##cion": 10446,
  "lowlands": 26411,
  "forge": 15681,
  "¥": 1071,
  "ui": 21318,
  "turner": 6769,
  "lids": 26122,
  "ngc": 27645,
  "banning": 21029,
  "xinjiang": 25904,
  "##liche": 27412,
  "agree": 5993,
  "heights": 7535,
  "176": 18561,
  "mercenary": 22146,
  "tunnels": 10633,
  "apache": 15895,
  "faso": 22773,
  "##berman": 23991,
  "develops": 11791,
  "root": 7117,
  "##thi": 15222,
  "[unused121]": 126,
  "##生": 30436,
  "punishment": 7750,
  "sultan": 7544,
  "12": 2260,
  "uganda": 10031,
  "mystical": 17529,
  "dodge": 11898,
  "prose": 12388,
  "telescopes": 28026,
  "キ": 1701,
  "jerk": 12181,
  "##mori": 24610,
  "##gman": 25494,
  "##gate": 5867,
  "##azi": 16103,
  "##lun": 26896,
  "padre": 28612,
  "unto": 19662,
  "paintings": 5265,
  "sexuality": 13798,
  "continue": 3613,
  "transports": 19003,
  "contemplated": 23133,
  "##ath": 8988,
  "lebanon": 8341,
  "glare": 10982,
  "rotor": 18929,
  "presidency": 8798,
  "ч": 1202,
  "##phus": 25255,
  "married": 2496,
  "pursuant": 27081,
  "allied": 6035,
  "certainty": 15855,
  "##vo": 6767,
  "ᄒ": 1469,
  "」": 1642,
  "guangzhou": 18693,
  "downfall": 22252,
  "[unused522]": 527,
  "palestine": 8976,
  "daisy": 10409,
  "show": 2265,
  "prick": 24858,
  "canine": 28735,
  "bilingual": 17636,
  "व": 1335,
  "library": 3075,
  "schemes": 11683,
  "marius": 20032,
  "aired": 4836,
  "[unused260]": 265,
  "##uld": 21285,
  "emergencies": 26360,
  "σ": 1173,
  "radio": 2557,
  "renumbered": 27855,
  "tribal": 8807,
  "taiwanese": 16539,
  "##cre": 16748,
  "[unused683]": 688,
  "intercontinental": 18725,
  "collective": 7268,
  "bush": 5747,
  "temples": 8436,
  "viewpoint": 21386,
  "inactive": 16389,
  "airplane": 13297,
  "yugoslav": 12292,
  "##ach": 6776,
  "##urne": 21737,
  "[unused570]": 575,
  "seeker": 29444,
  "longer": 2936,
  "colleges": 6667,
  "acts": 4490,
  "preaching": 17979,
  "escape": 4019,
  "invertebrates": 25700,
  "qualifiers": 18956,
  "##tori": 29469,
  "moscow": 4924,
  "strife": 27865,
  "[unused509]": 514,
  "chamber": 4574,
  "justices": 19867,
  "alliance": 4707,
  "sophomore": 13758,
  "become": 2468,
  "worse": 4788,
  "276": 25113,
  "##yin": 25811,
  "##oven": 25592,
  "penis": 19085,
  "##tosis": 25950,
  "city": 2103,
  "[unused284]": 289,
  "silent": 4333,
  "calcium": 13853,
  "doctoral": 11316,
  "ligue": 18374,
  "##oked": 23461,
  "[unused153]": 158,
  "bucharest": 14261,
  "##gated": 11644,
  "admiral": 5902,
  "##ieg": 28872,
  "##方": 30389,
  "ก": 1409,
  "##pel": 11880,
  "ye": 6300,
  "temporarily": 8184,
  "28th": 15538,
  "image": 3746,
  "char": 25869,
  "skull": 7412,
  "##gos": 12333,
  "southwest": 4943,
  "##⊂": 30137,
  "##nese": 14183,
  "hilbert": 27434,
  "##orestation": 25794,
  "##sse": 11393,
  "advisor": 8619,
  "##mo": 5302,
  "middle": 2690,
  "telescope": 12772,
  "slicing": 26514,
  "vaccine": 17404,
  "campaign": 3049,
  "dinah": 26562,
  "demi": 27668,
  "flair": 22012,
  "deutsche": 11605,
  "disneyland": 25104,
  "##ative": 8082,
  "oasis": 18128,
  "explanations": 17959,
  "himalayas": 26779,
  "ventured": 20510,
  "##в": 25529,
  "jake": 5180,
  "sagged": 26719,
  "ulysses": 22784,
  "##swell": 19228,
  "clement": 12223,
  "ezra": 16245,
  "wages": 12678,
  "##rdi": 17080,
  "brains": 14332,
  "##erate": 22139,
  "annual": 3296,
  "lsu": 21849,
  "##治": 30426,
  "madhya": 20841,
  "##hol": 14854,
  "guitarist": 5990,
  "cl": 18856,
  "optimism": 27451,
  "##smith": 21405,
  "##mies": 28397,
  "mohammed": 12619,
  "##mei": 26432,
  "##vy": 10736,
  "considerable": 6196,
  "malaya": 19979,
  "algiers": 22947,
  "sobbing": 20040,
  "spruce": 19893,
  "industrial": 3919,
  "habsburg": 17486,
  "monica": 9018,
  "mechanically": 27846,
  "swami": 20087,
  "##ᅪ": 30012,
  "lori": 18669,
  "anxiously": 23403,
  "##ᅮ": 30014,
  "ལ": 1435,
  "[unused431]": 436,
  "madness": 12013,
  "backwards": 11043,
  "segunda": 19071,
  "protests": 8090,
  "½": 1092,
  "directed": 2856,
  "loads": 15665,
  "assortment": 26285,
  "##ს": 29988,
  "##47": 22610,
  "[unused832]": 837,
  "pamela": 17217,
  "kw": 6448,
  "johnson": 3779,
  "giggling": 21783,
  "dvd": 4966,
  "[unused264]": 269,
  "##bbed": 15499,
  ":": 1024,
  "wrapped": 5058,
  "294": 28135,
  "piloted": 27220,
  "syriac": 24109,
  "stop": 2644,
  "##ugh": 8953,
  "jp": 16545,
  "canterbury": 9976,
  "ₑ": 1561,
  "##lein": 19856,
  "[unused911]": 916,
  "exception": 6453,
  "pipes": 12432,
  "##abia": 29039,
  "linked": 5799,
  "246": 22376,
  "electro": 16175,
  "311": 23532,
  "##icated": 17872,
  "bertha": 25079,
  "##sma": 26212,
  "costs": 5366,
  "buys": 23311,
  "antenna": 13438,
  "mug": 14757,
  "stages": 5711,
  "matthews": 12351,
  "weakness": 11251,
  "##jima": 19417,
  "##dened": 24589,
  "##tors": 6591,
  "boasts": 21979,
  "succession": 8338,
  "cease": 13236,
  "casually": 13217,
  "verona": 20197,
  "##尚": 30356,
  "##ting": 3436,
  "##kushima": 24917,
  "三": 1741,
  "gentle": 7132,
  "##vich": 12933,
  "[unused422]": 427,
  "cadence": 23620,
  "exempt": 11819,
  "##eki": 26576,
  "[unused540]": 545,
  "##grants": 27444,
  "scientists": 6529,
  "patronage": 15694,
  "strategic": 6143,
  "infamous": 14429,
  "pamphlets": 24752,
  "administrative": 3831,
  "neighbourhood": 10971,
  "##nst": 23808,
  "##ge": 3351,
  "guest": 4113,
  "palazzo": 18482,
  "euro": 9944,
  "pilot": 4405,
  "sans": 20344,
  "assertion": 23617,
  "meteorological": 20557,
  "guide": 5009,
  "afghan": 12632,
  "buzzing": 20386,
  "[unused152]": 157,
  "intends": 18754,
  "suffrage": 15178,
  "tyrone": 18770,
  "exceptional": 11813,
  "marathi": 18388,
  "##nage": 27031,
  "##ム": 30251,
  "alerted": 22333,
  "disappear": 10436,
  "##ᵀ": 30031,
  "[unused115]": 120,
  "intensified": 15767,
  "abs": 14689,
  "racing": 3868,
  "mouse": 8000,
  "position": 2597,
  "##ₐ": 30089,
  "feathers": 12261,
  "hickory": 28158,
  "reporting": 7316,
  "lone": 10459,
  "vegas": 7136,
  "market": 3006,
  "bars": 6963,
  "##介": 30285,
  "narayan": 24331,
  "##space": 23058,
  "##mann": 5804,
  "##rat": 8609,
  "notified": 19488,
  "magician": 16669,
  "##ged": 5999,
  "greet": 17021,
  "[unused52]": 53,
  "physicians": 11572,
  "##r": 2099,
  "rhapsody": 29395,
  "jingle": 29262,
  "charming": 11951,
  "receptionist": 23775,
  "wheat": 10500,
  "##lassified": 24938,
  "##yman": 17906,
  "questions": 3980,
  "sergey": 22703,
  "lb": 6053,
  "saint": 3002,
  "oh": 2821,
  "arranging": 19018,
  "##enberg": 11029,
  "christmas": 4234,
  "unnoticed": 22719,
  "##あ": 30172,
  "bases": 7888,
  "coulter": 28293,
  "jan": 5553,
  "wolverhampton": 20085,
  "traps": 16735,
  "##学": 30343,
  "guy": 3124,
  "irony": 19728,
  "religions": 11822,
  "milton": 9660,
  "co": 2522,
  "clinch": 29119,
  "thick": 4317,
  "##rana": 16737,
  "dogs": 6077,
  "chants": 29534,
  "valentin": 24632,
  "triassic": 29529,
  "maritime": 7803,
  "##fell": 23510,
  "divisional": 14167,
  "[unused128]": 133,
  "whistle": 13300,
  "liaison": 14975,
  "fail": 8246,
  "reflections": 16055,
  "sang": 6369,
  "##han": 4819,
  "seventeen": 9171,
  "lovely": 8403,
  "travels": 7930,
  "mechanized": 23387,
  "wedge": 17632,
  "philadelphia": 4407,
  "##yal": 21095,
  "##lford": 23211,
  "240": 11212,
  "airlines": 7608,
  "[unused676]": 681,
  "acquaintance": 18363,
  "archduke": 27463,
  "liquidation": 28763,
  "delegate": 11849,
  "fifteenth": 16249,
  "[unused251]": 256,
  "engagement": 8147,
  "prepares": 20776,
  "leto": 24543,
  "hurrying": 27951,
  "##ak": 4817,
  "aeronautics": 27459,
  "kenji": 25894,
  "wrocław": 25160,
  "rim": 11418,
  "dissemination": 28170,
  "inward": 20546,
  "jane": 4869,
  "coco": 25033,
  "platoon": 13799,
  "nebraska": 8506,
  "veins": 9607,
  "projecting": 18398,
  "similar": 2714,
  "##ep": 13699,
  "##rky": 15952,
  "##wen": 12449,
  "synchronized": 25549,
  "rendition": 19187,
  "brief": 4766,
  "staff": 3095,
  "dictatorship": 18944,
  "brno": 28634,
  "brook": 9566,
  "##อ": 29957,
  "##ege": 24746,
  "clothed": 24963,
  "client": 7396,
  "fruits": 10962,
  "訁": 1949,
  "ʎ": 1135,
  "about": 2055,
  "emotional": 6832,
  "pasha": 14292,
  "hudson": 6842,
  "[unused855]": 860,
  "##宗": 30347,
  "##aj": 13006,
  "md": 9108,
  "##fect": 25969,
  "##土": 30327,
  "##ulia": 20922,
  "weston": 12755,
  "calculated": 10174,
  "cousin": 5542,
  "1786": 17436,
  "##ந": 29922,
  "riga": 17557,
  "thing": 2518,
  "mcgill": 17919,
  "##mb": 14905,
  "##sil": 27572,
  "kitchens": 26051,
  "elegance": 27745,
  "wheels": 7787,
  "innsbruck": 28914,
  "murmurs": 22888,
  "##nas": 11649,
  "[unused934]": 939,
  "park": 2380,
  "##efined": 28344,
  "##葉": 30469,
  "shapes": 10466,
  "1798": 13036,
  "1612": 29186,
  "##〜": 30171,
  "angel": 4850,
  "humiliated": 26608,
  "eggs": 6763,
  "spoon": 15642,
  "trial": 3979,
  "aziz": 21196,
  "head": 2132,
  "[unused989]": 994,
  "hours": 2847,
  "worthless": 22692,
  "litigation": 15382,
  "stresses": 23253,
  "[unused772]": 777,
  "savanna": 22323,
  "depicted": 8212,
  "##bei": 19205,
  "commanders": 11437,
  "mckenzie": 18506,
  "bedford": 12003,
  "[unused189]": 194,
  "contribute": 9002,
  "claude": 8149,
  "ambushed": 22168,
  "##owski": 15249,
  "sounding": 9391,
  "reddish": 14182,
  "ditch": 14033,
  "junction": 5098,
  "1884": 6988,
  "##mas": 9335,
  "##bert": 8296,
  "##ept": 23606,
  "pool": 4770,
  "gui": 26458,
  "yves": 19687,
  "android": 11924,
  "9th": 6280,
  "acquaintances": 29409,
  "##hab": 25459,
  "l": 1048,
  "##essed": 23656,
  "area": 2181,
  "quantum": 8559,
  "na": 6583,
  "dissertation": 14481,
  "mata": 22640,
  "##wise": 14244,
  "twilight": 13132,
  "家": 1825,
  "peasants": 13193,
  "[unused982]": 987,
  "sonny": 13584,
  "adults": 6001,
  "son": 2365,
  "outfit": 11018,
  "kellan": 19697,
  "##oys": 27153,
  "sardinia": 21594,
  "dissolve": 21969,
  "##verted": 26686,
  "marketing": 5821,
  "companions": 11946,
  "##tar": 7559,
  "variations": 8358,
  "marne": 25823,
  "nazareth": 27192,
  "##held": 24850,
  "leung": 26037,
  "beck": 10272,
  "alla": 25699,
  "framed": 10366,
  "martyr": 17216,
  "loud": 5189,
  "hoax": 28520,
  "marriages": 12743,
  "explosion": 7738,
  "gently": 5251,
  "phillip": 10852,
  "##vina": 17948,
  "##raße": 27807,
  "fearless": 22518,
  "registry": 15584,
  "##lide": 24198,
  "##8": 2620,
  "won": 2180,
  "portal": 9445,
  "elite": 7069,
  "effectively": 6464,
  "##gne": 10177,
  "barefoot": 22985,
  "州": 1836,
  "funk": 11962,
  "##umb": 25438,
  "baby": 3336,
  "ib": 21307,
  "tiny": 4714,
  "latham": 28737,
  "itv": 11858,
  "##rsk": 27472,
  "accompanied": 5642,
  "hailed": 16586,
  "simi": 28684,
  "→": 1585,
  "munich": 7469,
  "barbara": 6437,
  "[unused499]": 504,
  "farmland": 16439,
  "ins": 16021,
  "##lization": 22731,
  "superhero": 16251,
  "##ern": 11795,
  "##ttered": 14795,
  "plaza": 8232,
  "friars": 24037,
  "emptied": 21764,
  "special": 2569,
  "versions": 4617,
  "skiing": 12701,
  "##lco": 22499,
  "##rf": 12881,
  "##bs": 5910,
  "dunedin": 22020,
  "dora": 21008,
  "##mounted": 27632,
  "b": 1038,
  "fabrics": 25123,
  "europe": 2885,
  "gertrude": 18734,
  "sleepy": 17056,
  "studios": 4835,
  "teams": 2780,
  "syllables": 20732,
  "reflection": 9185,
  "inputs": 20407,
  "°c": 6362,
  "notice": 5060,
  "decoration": 11446,
  "screwed": 14180,
  "##36": 21619,
  "obesity": 24552,
  "##pheus": 22809,
  "hughes": 8099,
  "putting": 5128,
  "bidding": 17534,
  "repertory": 21099,
  "hector": 10590,
  "susie": 23917,
  "₂": 1549,
  "resulted": 4504,
  "fa": 6904,
  "tex": 16060,
  "minas": 21750,
  "##ulin": 18639,
  "hot": 2980,
  "hurling": 10839,
  "pittsburgh": 6278,
  "google": 8224,
  "collier": 20466,
  "half": 2431,
  "##wai": 21547,
  "hostel": 21071,
  "outer": 6058,
  "olympic": 4386,
  "prime": 3539,
  "kindness": 16056,
  "mcgregor": 23023,
  "lesson": 10800,
  "memoir": 12558,
  "stance": 11032,
  "slightest": 15989,
  "bombardment": 10400,
  "enabling": 12067,
  "gwen": 11697,
  "mollusk": 13269,
  "sts": 8541,
  "xavier": 10062,
  "sh": 14021,
  "harden": 28751,
  "1850": 7973,
  "adaptation": 6789,
  "mora": 26821,
  "##eter": 15141,
  "equivalence": 27841,
  "residual": 21961,
  "##gard": 13444,
  "980": 25195,
  "mortal": 9801,
  "dual": 7037,
  "acceptance": 9920,
  "cleric": 29307,
  "##ori": 10050,
  "inclusive": 18678,
  "escorts": 24877,
  "##cultural": 29415,
  "suit": 4848,
  "adventurous": 29118,
  "ᵘ": 1506,
  "way": 2126,
  "adi": 27133,
  "seeded": 13916,
  "##rod": 14127,
  "waved": 7147,
  "##ᵗ": 30041,
  "convey": 16636,
  "virginia": 3448,
  "hardened": 15015,
  "##γ": 29721,
  "##nad": 25389,
  "dominance": 13811,
  "ʲ": 1141,
  "salim": 27490,
  "blair": 10503,
  "unease": 27880,
  "troy": 9553,
  "●": 1619,
  "¹": 1088,
  "maia": 23478,
  "け": 1654,
  "filters": 17736,
  "angle": 6466,
  "##etto": 20082,
  "schneider": 15159,
  "wraps": 19735,
  "##lini": 22153,
  "##ه": 14157,
  "ck": 23616,
  "##evsky": 27015,
  "tastes": 16958,
  "sofia": 8755,
  "##bird": 9001,
  "##ɒ": 29678,
  "##uka": 15750,
  "attitude": 7729,
  "accelerate": 23306,
  "conqueror": 25466,
  "charts": 6093,
  "##rose": 13278,
  "poppy": 19745,
  "starr": 14330,
  "##ning": 5582,
  "ignoring": 9217,
  "204": 19627,
  "obsolete": 15832,
  "threat": 5081,
  "##sily": 26863,
  "means": 2965,
  "flanked": 15874,
  "found": 2179,
  "##dee": 26095,
  "##忠": 30378,
  "##ife": 29323,
  "animated": 6579,
  "riddle": 21834,
  "1742": 25704,
  "insides": 19008,
  "midway": 12213,
  "temperament": 26270,
  "mongol": 17450,
  "##tism": 17456,
  "connects": 8539,
  "proposing": 21991,
  "も": 1681,
  "##uance": 26620,
  "jared": 8334,
  "lantern": 12856,
  "##春": 30393,
  "##tructing": 26310,
  "befriended": 23386,
  "001": 25604,
  "apology": 12480,
  "revenge": 7195,
  "emphasis": 7902,
  "excerpts": 24962,
  "marc": 7871,
  "diocesan": 18680,
  "ruler": 7786,
  "##foil": 24323,
  "##stad": 16917,
  "edwards": 7380,
  "discount": 19575,
  "engraved": 16328,
  "##romatic": 23645,
  "footage": 8333,
  "##llas": 25816,
  "paradigm": 20680,
  "surge": 12058,
  "bladder": 24176,
  "lau": 21360,
  "racetrack": 28435,
  "##time": 7292,
  "capacities": 21157,
  "stretching": 10917,
  "departed": 7745,
  "##tenberg": 21806,
  "sorts": 11901,
  "yen": 18371,
  "ancestor": 13032,
  "dressed": 5102,
  "wade": 10653,
  "egg": 8288,
  "del": 3972,
  "##nting": 24360,
  "passive": 13135,
  "nuremberg": 19346,
  "##shi": 6182,
  "stares": 14020,
  "##ove": 21818,
  "##ista": 11921,
  "[unused525]": 530,
  "mundane": 24684,
  "felipe": 17095,
  "virtues": 21560,
  "breakers": 24742,
  "##chemical": 15869,
  "mourning": 16236,
  "censorship": 15657,
  "miranda": 9392,
  "yuri": 14331,
  "arm": 2849,
  "horizons": 24484,
  "##光": 30296,
  "##icient": 20132,
  "##gut": 27920,
  "career": 2476,
  "hearing": 4994,
  "stare": 6237,
  "##rea": 16416,
  "temperatures": 7715,
  "paid": 3825,
  "casualty": 19844,
  "broncos": 14169,
  "##any": 19092,
  "serra": 22737,
  "stirling": 15597,
  "1950": 3925,
  "famine": 15625,
  "cite": 21893,
  "slogan": 14558,
  "millimetres": 13388,
  "##nk": 8950,
  "bono": 23648,
  "##corp": 24586,
  "indications": 24936,
  "##lick": 25230,
  "smiles": 8451,
  "treason": 14712,
  "modulation": 25502,
  "manifesto": 17124,
  "##nian": 11148,
  "humor": 8562,
  "determines": 16463,
  "宀": 1818,
  "guthrie": 19952,
  "stones": 6386,
  "statue": 6231,
  "iceland": 10399,
  "dear": 6203,
  "accessibility": 23661,
  "##dhi": 19114,
  "##his": 24158,
  "retrieve": 12850,
  "mechanical": 6228,
  "yanked": 10963,
  "wilkes": 20635,
  "shipment": 22613,
  "##onia": 12488,
  "superman": 10646,
  "ই": 1349,
  "twinned": 25901,
  "手": 1858,
  "record": 2501,
  "shell": 5806,
  "abducted": 20361,
  "422": 29269,
  "[unused410]": 415,
  "fingers": 3093,
  "mechanics": 9760,
  "juarez": 25398,
  "fighting": 3554,
  "export": 9167,
  "##tour": 21163,
  "encompass": 25281,
  "##rella": 21835,
  "265": 20549,
  "##edly": 26207,
  "sarcasm": 20954,
  "periodically": 18043,
  "that": 2008,
  "，": 1989,
  "##mons": 16563,
  "auditioned": 23008,
  "##o": 2080,
  "nest": 9089,
  "tricked": 24929,
  "##―": 30053,
  "victoria": 3848,
  "burials": 23109,
  "peabody": 20004,
  "warmth": 8251,
  "published": 2405,
  "##eased": 25063,
  "##ily": 6588,
  "knuckles": 13513,
  "##cine": 16567,
  "shrine": 9571,
  "##roi": 26692,
  "[unused838]": 843,
  "chariot": 23507,
  "diameter": 6705,
  "##cise": 18380,
  "##oma": 9626,
  "##iform": 22631,
  "ellington": 21630,
  "invite": 13260,
  "thus": 2947,
  "##nivorous": 29193,
  "─": 1615,
  "1900": 5141,
  "##pid": 23267,
  "parallel": 5903,
  "startup": 22752,
  "midfield": 23071,
  "grumbled": 17030,
  "##venor": 26806,
  "tributary": 8914,
  "##⁻": 30079,
  "britney": 29168,
  "lobe": 21833,
  "frantically": 16460,
  "contingent": 15445,
  "gibbs": 15659,
  "pad": 11687,
  "##iba": 18410,
  "##kic": 29493,
  "##،": 29814,
  "##gni": 29076,
  "zoning": 27462,
  "azores": 28320,
  "raoul": 22063,
  "uprising": 10138,
  "professionals": 8390,
  "უ": 1454,
  "wandered": 13289,
  "frequent": 6976,
  "follows": 4076,
  "vegetation": 10072,
  "##een": 12129,
  "como": 18609,
  "keyboard": 9019,
  "##smo": 25855,
  "tb": 26419,
  "imagination": 9647,
  "derived": 5173,
  "shivers": 28464,
  "##master": 8706,
  "jacksonville": 13057,
  "apron": 20376,
  "tool": 6994,
  "##sure": 28632,
  "barony": 19365,
  "extending": 8402,
  "layered": 21323,
  "execution": 7781,
  "canal": 5033,
  "nominate": 23388,
  "##nted": 14706,
  "[unused489]": 494,
  "##llah": 18599,
  "fundamentally": 24670,
  "boys": 3337,
  "##ogenic": 24278,
  "bandages": 27993,
  "fe": 10768,
  "[unused202]": 207,
  "jenny": 8437,
  "older": 3080,
  "rolls": 9372,
  "239": 23688,
  "##orth": 28610,
  "validation": 27354,
  "celine": 24550,
  "##з": 29744,
  "depended": 17292,
  "##弘": 30369,
  "limit": 5787,
  "bizarre": 13576,
  "abbreviation": 22498,
  "mcdowell": 25005,
  "handbook": 14812,
  "cracking": 15729,
  "ˈ": 1149,
  "since": 2144,
  "raw": 6315,
  "negotiated": 13630,
  "designation": 8259,
  "lies": 3658,
  "ruthless": 18101,
  "##ioms": 29178,
  "##lett": 20897,
  "##rite": 17625,
  "asleep": 6680,
  "close": 2485,
  "upright": 10051,
  "exploit": 18077,
  "[unused458]": 463,
  "1550": 26245,
  "departure": 6712,
  "##rh": 25032,
  "foster": 6469,
  "joseph": 3312,
  "erica": 19295,
  "reforms": 8818,
  "essex": 8862,
  "##lellan": 25839,
  "##drik": 28730,
  "tits": 25671,
  "belfast": 10330,
  "##illo": 10486,
  "narrowly": 11866,
  "commitments": 17786,
  "organic": 7554,
  "handicapped": 26920,
  "subunit": 24312,
  "rematch": 18229,
  "operators": 9224,
  "##ひ": 30199,
  "[unused504]": 509,
  "empty": 4064,
  "wakefield": 16045,
  "authorities": 4614,
  "tragedy": 10576,
  "colors": 6087,
  "anthology": 9637,
  "##ර": 29941,
  "enable": 9585,
  "##ales": 23266,
  "##∆": 30122,
  "##promising": 25013,
  "disadvantaged": 27322,
  "education": 2495,
  "flung": 14016,
  "impossible": 5263,
  "tanzania": 11959,
  "metals": 11970,
  "feast": 9831,
  "domains": 13100,
  "##ව": 29943,
  "##ս": 29781,
  "1926": 4881,
  "campuses": 13696,
  "pl": 20228,
  "1835": 10150,
  "liberals": 13350,
  "legion": 8009,
  "bathroom": 5723,
  "lame": 20342,
  "factual": 25854,
  "nominees": 17853,
  "possessed": 8679,
  "lois": 15815,
  "mayer": 14687,
  "renamed": 4096,
  "pigeons": 27567,
  "空": 1930,
  "sunken": 23470,
  "##ouin": 25058,
  "dwelling": 13160,
  "##don": 5280,
  "honorary": 5756,
  "management": 2968,
  "##ogy": 15707,
  "blockade": 15823,
  "conceal": 19819,
  "sonia": 16244,
  "viper": 17947,
  "severely": 8949,
  "submit": 12040,
  "prospective": 17464,
  "sequencing": 24558,
  "1850s": 16488,
  "suspect": 8343,
  "##den": 4181,
  "##ت": 29817,
  "##ister": 12911,
  "##cated": 12921,
  "shed": 8328,
  "wiping": 14612,
  "##ador": 26467,
  "illnesses": 24757,
  "shut": 3844,
  "defected": 26330,
  "tunisian": 22946,
  "kill": 3102,
  "bmw": 13154,
  "implement": 10408,
  "[unused31]": 32,
  "therapist": 19294,
  "activism": 16841,
  "rosary": 28291,
  "nu": 16371,
  "##card": 11522,
  "##aton": 22436,
  "circumstance": 25652,
  "dated": 6052,
  "symbolism": 22050,
  "川": 1835,
  "##cend": 23865,
  "refurbished": 18662,
  "headed": 3753,
  "judge": 3648,
  "excused": 28512,
  "##lova": 24221,
  "applicable": 12711,
  "promotion": 4712,
  "manifested": 24906,
  "muscular": 13472,
  "ק": 1264,
  "horribly": 27762,
  "##ridge": 9438,
  "scramble": 25740,
  "secondary": 3905,
  "axial": 26819,
  "ا": 1270,
  "york": 2259,
  "concepts": 8474,
  "walsh": 11019,
  "##rys": 24769,
  "₱": 1575,
  "mage": 17454,
  "thorne": 14296,
  "optics": 21026,
  "cain": 11557,
  "amateurs": 24361,
  "furnishings": 23127,
  "hawaiian": 12188,
  "pony": 15606,
  "domesday": 22310,
  "charcoal": 18872,
  "##ading": 23782,
  "extracted": 15901,
  "pantheon": 24152,
  "vitro": 25714,
  "conclusions": 15306,
  "safety": 3808,
  "pornography": 19378,
  "smug": 20673,
  "congratulations": 23156,
  "dart": 14957,
  "##ש": 29812,
  "advised": 9449,
  "slick": 13554,
  "terror": 7404,
  "##fus": 25608,
  "##yler": 20853,
  "stanisław": 26133,
  "angry": 4854,
  "##unt": 16671,
  "rival": 6538,
  "libya": 12917,
  "167": 16785,
  "eleanor": 10508,
  "compulsion": 27638,
  "breath": 3052,
  "ardent": 25314,
  "historians": 7862,
  "implements": 22164,
  "##თ": 29980,
  "berkeley": 8256,
  "doc": 9986,
  "[unused426]": 431,
  "##sley": 8002,
  "disc": 5860,
  "##usia": 24118,
  "##ע": 29805,
  "geelong": 18664,
  "##見": 30474,
  "collapses": 25938,
  "ethernet": 26110,
  "##ctum": 27272,
  "literal": 18204,
  "scrapped": 14553,
  "launch": 4888,
  "genera": 11416,
  "人": 1756,
  "left": 2187,
  "##oton": 25862,
  "sanctuary": 8493,
  "ɛ": 1115,
  "flee": 10574,
  "##fk": 24316,
  "##dhar": 25632,
  "reigns": 23481,
  "[unused722]": 727,
  "660": 20982,
  "libby": 19533,
  "portrayal": 13954,
  "d": 1040,
  "alexandria": 10297,
  "reminds": 15537,
  "southwestern": 8772,
  "nails": 10063,
  "seizing": 24681,
  "meng": 27955,
  "secluded": 27044,
  "adaptations": 17241,
  "decker": 20946,
  "[unused930]": 935,
  "micah": 17665,
  "addison": 18403,
  "fling": 27655,
  "armenian": 7508,
  "stokes": 18716,
  "##ysis": 20960,
  "tongue": 4416,
  "random": 6721,
  "##dates": 27122,
  "##optera": 25324,
  "compassionate": 29353,
  "idols": 24438,
  "##chman": 19944,
  "lai": 21110,
  "streaks": 21295,
  "vehicles": 4683,
  "courtroom": 20747,
  "constructing": 15696,
  "##mise": 28732,
  "legitimacy": 22568,
  "[unused193]": 198,
  "basin": 6403,
  "lindsay": 12110,
  "##ties": 7368,
  "nations": 3741,
  "clarissa": 25260,
  "##emy": 26662,
  "ة": 1272,
  "##san": 8791,
  "affiliates": 18460,
  "uncomfortably": 22502,
  "stimulated": 25194,
  "forcing": 6932,
  "achilles": 23167,
  "##mian": 20924,
  "arterial": 25543,
  "寺": 1827,
  "meaningful": 15902,
  "continental": 6803,
  "##gur": 27390,
  "##all": 8095,
  "variables": 10857,
  "slovakia": 10991,
  "sporadic": 24590,
  "##tile": 15286,
  "foundation": 3192,
  "spokesman": 14056,
  "heel": 12073,
  "∘": 1599,
  "##him": 14341,
  "headmaster": 16296,
  "doris": 15467,
  "damon": 11317,
  "##meister": 28824,
  "vine": 15351,
  "customer": 8013,
  "[unused137]": 142,
  "wired": 17502,
  "##heart": 22375,
  "om": 18168,
  "comparatively": 20172,
  "machine": 3698,
  "waterways": 21938,
  "[unused798]": 803,
  "krakow": 14576,
  "##dial": 27184,
  "earned": 3687,
  "munster": 11348,
  "graphics": 8389,
  "pennant": 22690,
  "weighed": 12781,
  "before": 2077,
  "simone": 14072,
  "1923": 4927,
  "johnny": 5206,
  "##ions": 8496,
  "superior": 6020,
  "caliphate": 28034,
  "petite": 20146,
  "ם": 1254,
  "stamps": 12133,
  "televised": 13762,
  "皇": 1917,
  "genoa": 15771,
  "twentieth": 9086,
  "354": 27878,
  "##ators": 18926,
  "flavour": 28126,
  "negotiating": 18875,
  "overnight": 11585,
  "agile": 29003,
  "##sle": 25016,
  "##tur": 20689,
  "##ef": 12879,
  "slippery": 22274,
  "virgin": 6261,
  "easter": 10957,
  "resumed": 7943,
  "[unused717]": 722,
  "##brate": 22008,
  "##rgos": 22280,
  "mellon": 22181,
  "sterling": 10933,
  "mused": 22335,
  "[unused784]": 789,
  "synonym": 10675,
  "ケ": 1703,
  "bluff": 14441,
  "##cona": 24366,
  "##ajan": 28869,
  "erik": 10240,
  "shaky": 15311,
  "fascination": 18987,
  "divisions": 5908,
  "ears": 5551,
  "horizontal": 9876,
  "canary": 17154,
  "india": 2634,
  "diversity": 8906,
  "mcc": 23680,
  "awards": 2982,
  "polgara": 27041,
  "swim": 9880,
  "加": 1779,
  "recaptured": 23838,
  "koln": 28306,
  "##ta": 2696,
  "destiny": 10461,
  "hare": 14263,
  "proponents": 20401,
  "##venting": 26703,
  "argus": 25294,
  "booking": 21725,
  "enemy": 4099,
  "genealogical": 29606,
  "informal": 11900,
  "stab": 17079,
  "filtering": 22910,
  "def": 13366,
  "17": 2459,
  "confessions": 21444,
  "clutched": 13514,
  "ring": 3614,
  "librarian": 13850,
  "appeal": 5574,
  "tournament": 2977,
  "’": 1521,
  "rack": 14513,
  "instructed": 10290,
  "percival": 27832,
  "chaos": 8488,
  "naia": 29511,
  "yeshiva": 22142,
  "leach": 24520,
  "scripture": 18919,
  "jogged": 27812,
  "weren": 4694,
  "nora": 12306,
  "ankles": 15392,
  "stake": 8406,
  "##wear": 16689,
  "suitable": 7218,
  "analog": 11698,
  "stripping": 23987,
  "##itha": 26054,
  "##cliffe": 18115,
  "jerking": 22387,
  "geologist": 21334,
  "speculated": 15520,
  "imprint": 15738,
  "projects": 3934,
  "revisions": 24699,
  "roads": 4925,
  "maternal": 11062,
  "ₗ": 1566,
  "rug": 20452,
  "jockey": 13989,
  "grimace": 25898,
  "connecting": 7176,
  "prequel": 28280,
  "1665": 27676,
  "##wski": 10344,
  "1800s": 19878,
  "benoit": 21721,
  "##wine": 21924,
  "##nath": 16207,
  "[unused111]": 116,
  "august": 2257,
  "land": 2455,
  "coarse": 20392,
  "monopoly": 15404,
  "##張": 30370,
  "traumatic": 19686,
  "abandoned": 4704,
  "generating": 11717,
  "uttar": 14940,
  "[unused658]": 663,
  "thinkers": 24762,
  "##mple": 23344,
  "fucked": 21746,
  "hydra": 26018,
  "403": 28203,
  "con": 9530,
  "##hawks": 16043,
  "rejected": 5837,
  "kurdish": 15553,
  "##nant": 16885,
  "yd": 21076,
  "##nob": 25083,
  "raleigh": 15842,
  "kindly": 19045,
  "guild": 9054,
  "enzo": 26218,
  "capacity": 3977,
  "力": 1778,
  "1775": 14276,
  "barack": 13857,
  "imaginary": 15344,
  "smack": 21526,
  "pacing": 15732,
  "##uche": 19140,
  "abbreviated": 12066,
  "##dell": 12662,
  "serum": 20194,
  "dos": 9998,
  "dizzy": 14849,
  "##ben": 10609,
  "while": 2096,
  "flourishing": 29571,
  "logan": 6307,
  "euros": 19329,
  "elaborated": 25187,
  "ք": 1239,
  "[unused970]": 975,
  "captives": 21496,
  "tajikistan": 23538,
  "specialising": 23315,
  "sighing": 19381,
  "stay": 2994,
  "magazines": 7298,
  "routes": 5847,
  "spelling": 11379,
  "304": 23859,
  "causing": 4786,
  "myth": 10661,
  "isle": 8842,
  "##rka": 22379,
  "totaled": 23596,
  "##ん": 30217,
  "##yev": 17240,
  "agnes": 11166,
  "ranger": 11505,
  "majesty": 9995,
  "coil": 17085,
  "##ต": 29947,
  "westphalia": 22952,
  "[unused966]": 971,
  "favoured": 16822,
  "doors": 4303,
  "##awan": 25903,
  "##rous": 13288,
  "equity": 10067,
  "##os": 2891,
  "formed": 2719,
  "bows": 21207,
  "repetitive": 23563,
  "##awa": 10830,
  "##ythe": 26688,
  "rounds": 6241,
  "minor": 3576,
  "##iere": 21253,
  "emmett": 25685,
  "##rco": 29566,
  "##rnier": 28484,
  "agreed": 3530,
  "origin": 4761,
  "tko": 26537,
  "fuels": 20145,
  "jets": 9924,
  "preceded": 11677,
  "rejection": 13893,
  "##lch": 29358,
  "unnecessary": 14203,
  "ultimate": 7209,
  "blossom": 20593,
  "##around": 24490,
  "onto": 3031,
  "##ร": 29953,
  "fortunate": 19590,
  "##phile": 24862,
  "308": 24232,
  "##ₗ": 30095,
  "crazy": 4689,
  "apologize": 12134,
  "emirates": 14041,
  "paused": 5864,
  "susannah": 20471,
  "grants": 8624,
  "aux": 19554,
  "wes": 14008,
  "laugh": 4756,
  "butte": 25024,
  "invariably": 26597,
  "mistake": 6707,
  "##ezer": 25733,
  "moods": 27824,
  "ह": 1339,
  "goalkeeper": 9653,
  "atkinson": 18646,
  "fallon": 16443,
  "insistence": 20616,
  "offered": 3253,
  "mutant": 15527,
  "vp": 21210,
  "guiana": 23568,
  "macon": 20025,
  "investigations": 9751,
  "[unused393]": 398,
  "waller": 23550,
  "aurora": 13158,
  "##ylus": 18871,
  "島": 1833,
  "defect": 21262,
  "##ᄌ": 30000,
  "inspected": 20456,
  "##rok": 27923,
  "wards": 11682,
  "jacket": 6598,
  "agents": 6074,
  "##iano": 15668,
  "logos": 25571,
  "##ains": 28247,
  "72": 5824,
  "listen": 4952,
  "gardiner": 21143,
  "brightened": 28996,
  "₁": 1548,
  "electronic": 4816,
  "writing": 3015,
  "tak": 27006,
  "douglass": 27485,
  "kellogg": 26129,
  "lia": 22393,
  "editor": 3559,
  "##air": 11215,
  "sight": 4356,
  "pancakes": 28470,
  "splitting": 14541,
  "ordinary": 6623,
  "passes": 5235,
  "grill": 18651,
  "seminar": 18014,
  "indigenous": 6284,
  "219": 20636,
  "equals": 19635,
  "gmbh": 18289,
  "singers": 8453,
  "[unused238]": 243,
  "moons": 23377,
  "rumors": 11256,
  "roller": 11220,
  "importantly": 14780,
  "unsafe": 25135,
  "1960s": 4120,
  "tyre": 21904,
  "annoying": 15703,
  "fuller": 12548,
  "muscles": 6650,
  "environment": 4044,
  "authority": 3691,
  "superstar": 18795,
  "dangerously": 20754,
  "zac": 29250,
  "##∪": 30132,
  "##9th": 25660,
  "##tive": 6024,
  "away": 2185,
  "handicap": 15822,
  "##beau": 26401,
  "libertadores": 27968,
  "chalk": 16833,
  "##long": 10052,
  "shack": 22200,
  "mercedes": 10793,
  "immortals": 26796,
  "transform": 10938,
  "rave": 23289,
  "upton": 26900,
  "1962": 3705,
  "linnaeus": 21610,
  "consonants": 19694,
  "广": 1842,
  "discourage": 28085,
  "მ": 1448,
  "##kat": 24498,
  "injured": 5229,
  "steal": 8954,
  "rising": 4803,
  "[unused483]": 488,
  "coaching": 7748,
  "newfoundland": 11944,
  "prom": 20877,
  "cloak": 11965,
  "avenues": 20859,
  "janeiro": 11497,
  "series": 2186,
  "coordinates": 12093,
  "granting": 15080,
  "observing": 14158,
  "gamble": 18503,
  "花": 1940,
  "nacional": 10718,
  "р": 1195,
  "##holz": 28094,
  "##position": 26994,
  "##end": 10497,
  "##put": 18780,
  "lynne": 26938,
  "阝": 1970,
  "visas": 24487,
  "torn": 7950,
  "shortages": 22623,
  "##bians": 26376,
  "palatinate": 18990,
  "fulbright": 26695,
  "barnett": 20073,
  "##ʉ": 29697,
  "experiences": 6322,
  "trans": 9099,
  "grief": 9940,
  "##eft": 29218,
  "posthumous": 19086,
  "sunglasses": 17072,
  "props": 24387,
  "[unused213]": 218,
  "##hiro": 18334,
  "manner": 5450,
  "kiran": 22403,
  "betsy": 22396,
  "possessive": 22105,
  "ribs": 10335,
  "rom": 17083,
  "animal": 4111,
  "digger": 28661,
  "broken": 3714,
  "##nea": 22084,
  "##•": 30063,
  "nine": 3157,
  "ₒ": 1562,
  "1757": 22621,
  "recognised": 7843,
  "gustavo": 24801,
  "dowager": 20508,
  "should": 2323,
  "\\": 1032,
  "retrieved": 5140,
  "shock": 5213,
  "whorls": 25637,
  "galerie": 17941,
  "1809": 12861,
  "dietrich": 22567,
  "##ees": 10285,
  "lord": 2935,
  "kerala": 8935,
  "detonated": 28110,
  "vicky": 22845,
  "bowl": 4605,
  "[unused420]": 425,
  "##tres": 19168,
  "braced": 15515,
  "breathed": 8726,
  "resting": 8345,
  "sees": 5927,
  "prone": 13047,
  "comparing": 13599,
  "##ᅯ": 30015,
  "em": 7861,
  "stills": 26105,
  "ᶠ": 1512,
  "1738": 28009,
  "reorganized": 14137,
  "aft": 16638,
  "nationale": 17360,
  "lease": 10084,
  "leverage": 21155,
  "headquarters": 4075,
  "relax": 9483,
  "us": 2149,
  "heavens": 17223,
  "##tf": 24475,
  "tumbled": 18303,
  "christians": 8135,
  "264": 21611,
  "##eet": 15558,
  "jude": 12582,
  "##ড": 29896,
  "##ʷ": 29709,
  "fall": 2991,
  "practically": 8134,
  "obsession": 17418,
  "mocking": 19545,
  "arc": 8115,
  "rein": 27788,
  "derivatives": 16942,
  "mates": 14711,
  "resolutions": 18853,
  "breach": 12510,
  "survival": 7691,
  "referred": 3615,
  "environments": 10058,
  "##og": 8649,
  "grimly": 22561,
  "griffith": 14135,
  "yun": 22854,
  "##ɕ": 29680,
  "reykjavik": 28559,
  "citadel": 15364,
  "mantle": 16019,
  "commissioned": 4837,
  "plaster": 15673,
  "continued": 2506,
  "[unused718]": 723,
  "meta": 18804,
  "complexion": 28838,
  "1733": 27230,
  "delicately": 28814,
  "##nta": 12380,
  "tina": 11958,
  "[unused892]": 897,
  "four": 2176,
  "##wt": 26677,
  "trenton": 17148,
  "crucial": 10232,
  "ports": 8831,
  "द": 1325,
  "blessings": 24618,
  "yankee": 17652,
  "##oa": 10441,
  "reverse": 7901,
  "と": 1666,
  "supper": 15264,
  "niagara": 15473,
  "zev": 27909,
  "[unused655]": 660,
  "added": 2794,
  "excellence": 8012,
  "neal": 11030,
  "pausing": 20490,
  "disorder": 8761,
  "ecological": 12231,
  "ン": 1737,
  "##lly": 9215,
  "remastered": 19484,
  "maintain": 5441,
  "##ith": 8939,
  "₩": 1573,
  "muslim": 5152,
  "tonga": 20188,
  "##rl": 12190,
  "ahmad": 10781,
  "ritual": 8887,
  "boogie": 21495,
  "domingo": 15586,
  "pact": 14790,
  "aldo": 28163,
  "ina": 27118,
  "melinda": 23721,
  "invoked": 24959,
  "fixing": 15887,
  "passenger": 4628,
  "engages": 24255,
  "loyola": 21580,
  "##umble": 26607,
  "##cano": 23803,
  "alonso": 17649,
  "grabs": 13273,
  "retailers": 16629,
  "proposed": 3818,
  "borg": 28709,
  "cub": 21987,
  "counters": 24094,
  "publishers": 8544,
  "larkin": 25570,
  "mayoral": 23578,
  "awake": 8300,
  "##ographer": 26145,
  "issuing": 15089,
  "##ble": 3468,
  "rib": 19395,
  "##mbre": 19908,
  "hampson": 21780,
  "hue": 20639,
  "judicial": 8268,
  "steered": 23424,
  "partisans": 20762,
  "stone": 2962,
  "liquid": 6381,
  "reliance": 17975,
  "##rer": 14544,
  "numerical": 15973,
  "paired": 12739,
  "vectors": 19019,
  "buddhism": 11388,
  "systemic": 22575,
  "ր": 1237,
  "researchers": 6950,
  "angeles": 3349,
  "##nsed": 27730,
  "originated": 7940,
  "lehigh": 23241,
  "schedule": 6134,
  "resonance": 17011,
  "nadu": 10703,
  "taxes": 7773,
  "བ": 1431,
  "dove": 10855,
  "veteran": 8003,
  "ᅦ": 1473,
  "previously": 3130,
  "preoccupied": 23962,
  "treating": 12318,
  "[unused501]": 506,
  "fairfax": 17833,
  "##ens": 6132,
  "[unused883]": 888,
  "81": 6282,
  "##lc": 15472,
  "文": 1861,
  "214": 19936,
  "ringing": 13060,
  "rouge": 12801,
  "noted": 3264,
  "名": 1795,
  "tab": 21628,
  "##culus": 28703,
  "selma": 28112,
  "temps": 29023,
  "steady": 6706,
  "##own": 12384,
  "guts": 18453,
  "frequented": 24832,
  "pest": 20739,
  "influential": 6383,
  "##ists": 5130,
  "swirled": 19171,
  "classmates": 19846,
  "examination": 7749,
  "hedge": 17834,
  "cruel": 10311,
  "1700": 16601,
  "deer": 8448,
  "##yce": 29297,
  "bodily": 20445,
  "organise": 22933,
  "evan": 9340,
  "separated": 5459,
  "reverted": 16407,
  "daze": 28918,
  "1630": 24994,
  "solos": 24339,
  "nail": 13774,
  "musician": 5455,
  "warns": 19428,
  "usher": 20774,
  "1843": 10075,
  "##hosh": 26643,
  "solemn": 19487,
  "geoff": 14915,
  "##tion": 3508,
  "##nda": 8943,
  "geological": 9843,
  "scrape": 26988,
  "##ड": 29857,
  "reed": 7305,
  "1659": 28288,
  "rebecca": 9423,
  "artistic": 6018,
  "singles": 3895,
  "medals": 6665,
  "useless": 11809,
  "sloping": 24724,
  "kuala": 15490,
  "##ign": 23773,
  "preceding": 11003,
  "durham": 9296,
  "##lass": 27102,
  "&": 1004,
  "savior": 24859,
  "portrays": 17509,
  "##hita": 23935,
  "##arat": 25879,
  "remarkably": 17431,
  "ground": 2598,
  "beautiful": 3376,
  "dover": 13985,
  "##ury": 13098,
  "cushion": 22936,
  "accomplishment": 24718,
  "##國": 30326,
  "virtue": 11870,
  "isa": 18061,
  "subgenus": 25356,
  "##eg": 13910,
  "##oot": 17206,
  "##rked": 19849,
  "chopra": 28826,
  "laurent": 14718,
  "lucian": 18218,
  "organizer": 19012,
  "brooks": 8379,
  "exposing": 14944,
  "constitutional": 6543,
  "##kura": 28260,
  "tags": 22073,
  "binary": 12441,
  "##≥": 30136,
  "##asurable": 28329,
  "reckless": 18555,
  "dragons": 8626,
  "clocks": 20940,
  "speedway": 10688,
  "vehicle": 4316,
  "visa": 9425,
  "bitterly": 19248,
  "scheduling": 19940,
  "alexei": 21219,
  "solo": 3948,
  "##avio": 28471,
  "trained": 4738,
  "worship": 7425,
  "big": 2502,
  "publicized": 24928,
  "gotham": 22814,
  "ewing": 24023,
  "replied": 3880,
  "disregard": 27770,
  "tully": 25724,
  "alter": 11477,
  "cannabis": 17985,
  "carnival": 11485,
  "pry": 29198,
  "rural": 3541,
  "ed": 3968,
  "acquiring": 13868,
  "halls": 9873,
  "resources": 4219,
  "1722": 26689,
  "nitrogen": 14114,
  "69": 6353,
  "##zano": 24147,
  "violins": 25877,
  "##lift": 18412,
  "encoded": 12359,
  "##dr": 13626,
  "ন": 1366,
  "spread": 3659,
  "glen": 8904,
  "deteriorated": 20111,
  "##hri": 26378,
  "cream": 6949,
  "1904": 5692,
  "cope": 11997,
  "tigers": 7600,
  "##原": 30313,
  "heat": 3684,
  "[unused874]": 879,
  "spirit": 4382,
  "##arding": 29154,
  "chorale": 26561,
  "cbs": 6568,
  "##eti": 20624,
  "he": 2002,
  "モ": 1727,
  "##კ": 29982,
  "##ː": 23432,
  "gallantry": 22111,
  "seas": 11915,
  "bragg": 23678,
  "substantive": 27737,
  "models": 4275,
  "feminist": 10469,
  "probe": 15113,
  "blunt": 14969,
  "welding": 23604,
  "lennon": 14294,
  "gauge": 7633,
  "unofficial": 11982,
  "tow": 15805,
  "organisms": 11767,
  "venom": 15779,
  "progresses": 22901,
  "ு": 1397,
  "dim": 11737,
  "peruvian": 15432,
  "hospice": 29277,
  "##ame": 14074,
  "292": 25797,
  "[unused18]": 19,
  "concerning": 7175,
  "##ffs": 21807,
  "gypsy": 16006,
  "##ners": 16912,
  "knot": 12226,
  "lc": 29215,
  "grape": 14722,
  "##yles": 26274,
  "herman": 11458,
  "keeps": 7906,
  "herrera": 23527,
  "congregational": 20809,
  "greeted": 11188,
  "zeke": 18270,
  "brewer": 18710,
  "##anger": 25121,
  "matches": 3503,
  "couldn": 2481,
  "manned": 15371,
  "90": 3938,
  "nervous": 6091,
  "##eke": 23941,
  "##oz": 18153,
  "picasso": 22457,
  "tenth": 7891,
  "autonomous": 8392,
  "##ย": 29952,
  "culture": 3226,
  "iroquois": 23015,
  "##’": 30056,
  "landslide": 20148,
  "botanical": 13194,
  "blackish": 22032,
  "angelina": 23847,
  "insertion": 23851,
  "buck": 10131,
  "##郎": 30484,
  "norwegian": 5046,
  "##hard": 11783,
  "sail": 9498,
  "glorious": 14013,
  "gymnasium": 11288,
  "##leaf": 19213,
  "將": 1828,
  "jj": 29017,
  "morality": 16561,
  "##pus": 12207,
  "tiffany": 14381,
  "##囗": 30323,
  "penetrate": 19136,
  "fuzzy": 18001,
  "deadline": 15117,
  "kay": 10905,
  "[unused594]": 599,
  "lever": 15929,
  "answered": 4660,
  "animation": 7284,
  "radiation": 8249,
  "[unused633]": 638,
  "square": 2675,
  "reveal": 7487,
  "arabic": 5640,
  "161": 17365,
  "##bha": 22655,
  "alba": 18255,
  "breed": 8843,
  "##inda": 23938,
  "##pods": 22925,
  "concord": 16557,
  "য": 1371,
  "##loading": 18570,
  "##ced": 11788,
  "batted": 12822,
  "possible": 2825,
  "thrusting": 21468,
  "##tary": 18219,
  "output": 6434,
  "ᴵ": 1493,
  "providing": 4346,
  "##had": 16102,
  "intuition": 26406,
  "freaks": 29526,
  "slovenia": 10307,
  "drivers": 6853,
  "locations": 5269,
  "1807": 13206,
  "⁵": 1539,
  "swing": 7370,
  "indexed": 25331,
  "freaked": 22783,
  "remarried": 19316,
  "adventures": 7357,
  "sincerity": 23997,
  "briggs": 15487,
  "cooling": 11520,
  "##pping": 14853,
  "prc": 26141,
  "##dae": 6858,
  "##zumi": 28114,
  "†": 1526,
  "hawks": 12505,
  "grave": 6542,
  "designed": 2881,
  "##rba": 28483,
  "salvation": 12611,
  "sp": 11867,
  "chicken": 7975,
  "inorganic": 28256,
  "distance": 3292,
  "##ος": 15297,
  "artists": 3324,
  "prevent": 4652,
  "310": 17196,
  "##iac": 20469,
  "flynn": 13259,
  "witches": 12566,
  "expedition": 5590,
  "葉": 1943,
  "ik": 20912,
  "feminine": 12320,
  "##bolt": 22803,
  "respective": 7972,
  "cobalt": 25627,
  "noses": 27518,
  "nielsen": 13188,
  "serge": 21747,
  "closeness": 28398,
  "pronounced": 8793,
  "monsters": 9219,
  "knitting": 26098,
  "##moto": 15319,
  "repaired": 13671,
  "chaotic": 19633,
  "##mology": 20570,
  "salsa": 26509,
  "356": 27509,
  "dysfunction": 28466,
  "dentistry": 26556,
  "severe": 5729,
  "[unused757]": 762,
  "[unused835]": 840,
  "dinamo": 22306,
  "##amo": 22591,
  "##ught": 18533,
  "welcomed": 10979,
  "miracle": 9727,
  "putnam": 20230,
  "achievement": 6344,
  "て": 1665,
  "noon": 11501,
  "attacking": 7866,
  "inaccessible": 29104,
  "unauthorized": 24641,
  "unicef": 29073,
  "jefferson": 7625,
  "adoption": 9886,
  "majors": 15279,
  "latch": 25635,
  "##ය": 29940,
  "newfound": 27608,
  "logged": 26618,
  "carr": 12385,
  "winner": 3453,
  "convent": 10664,
  "shadows": 6281,
  "posterior": 15219,
  "戦": 1856,
  "effort": 3947,
  "צ": 1263,
  "waivers": 28654,
  "##xi": 9048,
  "ز": 1281,
  "197": 19975,
  "##µ": 29659,
  "chronic": 11888,
  "mike": 3505,
  "unfair": 15571,
  "heaving": 23907,
  "filly": 22062,
  "deficiency": 18888,
  "pic": 27263,
  "##quet": 12647,
  "meditation": 13804,
  "samsung": 19102,
  "##fl": 10258,
  "seizure": 18634,
  "##tter": 12079,
  "cruise": 8592,
  "bonnet": 24367,
  "hemisphere": 14130,
  "surfaced": 15791,
  "enough": 2438,
  "toni": 16525,
  "##eira": 21302,
  "yorker": 19095,
  "blessed": 10190,
  "sixty": 8442,
  "##oria": 11069,
  "machines": 6681,
  "initially": 3322,
  "scope": 9531,
  "reacted": 14831,
  "sava": 28350,
  "pod": 17491,
  "##app": 29098,
  "condition": 4650,
  "##ude": 12672,
  "ezekiel": 28743,
  "kids": 4268,
  "##示": 30449,
  "cad": 28353,
  "##cheon": 28099,
  "maneuvers": 23802,
  "driver": 4062,
  "##nsk": 25564,
  "oaxaca": 26923,
  "##^": 29637,
  "##¤": 29647,
  "match": 2674,
  "reveals": 7657,
  "cambodian": 24417,
  "porch": 7424,
  "midsummer": 28171,
  "walkway": 19467,
  "ao": 20118,
  "compatible": 11892,
  "remotely": 19512,
  "salle": 18005,
  "political": 2576,
  "trio": 7146,
  "chiefly": 15897,
  "##aves": 21055,
  "brazilian": 6142,
  "renewable": 13918,
  "rational": 11581,
  "proudly": 18067,
  "axes": 19589,
  "additive": 29167,
  "henley": 20768,
  "seo": 27457,
  "nowadays": 13367,
  "##avian": 21654,
  "weir": 16658,
  "lama": 18832,
  "robe": 11111,
  "passions": 25289,
  "token": 19204,
  "##nh": 25311,
  "rappers": 28257,
  "gel": 21500,
  "solidarity": 14657,
  "dictionary": 9206,
  "##plify": 28250,
  "[unused794]": 799,
  "hunched": 20498,
  "wind": 3612,
  "seventy": 10920,
  "dinosaurs": 18148,
  "##inium": 27585,
  "cicero": 23080,
  "##nock": 18057,
  "decades": 5109,
  "hammered": 25756,
  "orleans": 5979,
  "caden": 23600,
  "greta": 26111,
  "[unused480]": 485,
  "news": 2739,
  "vapor": 20064,
  "146": 16333,
  "yields": 16189,
  "##vs": 15088,
  "##bot": 18384,
  "##fu": 11263,
  "cyclone": 11609,
  "barrel": 8460,
  "colorado": 5169,
  "detecting": 25952,
  "##au": 4887,
  "cadillac": 20425,
  "synagogue": 13067,
  "[unused818]": 823,
  "uh": 7910,
  "1822": 12307,
  "##ifies": 14144,
  "appropriate": 6413,
  "##wing": 9328,
  "captivity": 16187,
  "##book": 8654,
  "##ppe": 21512,
  "##oco": 24163,
  "defective": 28829,
  "fees": 9883,
  "naked": 6248,
  "undertook": 12543,
  "arching": 27335,
  "orlando": 10108,
  "fourth": 2959,
  "mccain": 19186,
  "profits": 11372,
  "woven": 17374,
  "greensboro": 27905,
  "erebidae": 25875,
  "huntsville": 28492,
  "shield": 6099,
  "rv": 27634,
  "stature": 21120,
  "gliding": 20292,
  "fictitious": 23577,
  "##phine": 20738,
  "zoology": 22405,
  "##uled": 18696,
  "nuclear": 4517,
  "520": 19611,
  "##mler": 18602,
  "##cave": 27454,
  "catastrophe": 25539,
  "recapture": 27639,
  "purposes": 5682,
  "joanna": 15730,
  "##writing": 18560,
  "tunis": 25317,
  "devastating": 14886,
  "ecosystem": 16927,
  "install": 16500,
  "##jali": 28948,
  "bedfordshire": 28430,
  "##qua": 16211,
  "wong": 11789,
  "furrowed": 20555,
  "volta": 26089,
  "consultancy": 24853,
  "statement": 4861,
  "harris": 5671,
  "[unused24]": 25,
  "91": 6205,
  "editions": 6572,
  "oxide": 15772,
  "unofficially": 29322,
  "carbonate": 26427,
  "##pt": 13876,
  "##eux": 20860,
  "間": 1969,
  "khalid": 21828,
  "heroine": 18869,
  "humour": 17211,
  "warnings": 16234,
  "empire": 3400,
  "silas": 18553,
  "tyler": 7482,
  "maris": 23787,
  "wanted": 2359,
  "conjecture": 22647,
  "whig": 21632,
  "##eve": 18697,
  "greeting": 14806,
  "##park": 14432,
  "nrl": 20686,
  "zoological": 26168,
  "imaginative": 28575,
  "starbucks": 29500,
  "##lands": 8653,
  "pbs": 13683,
  "royce": 14789,
  "yang": 8675,
  "lullaby": 29149,
  "kinship": 27866,
  "ratification": 27369,
  "echoing": 17142,
  "encounter": 8087,
  "■": 1617,
  "barre": 23189,
  "ai": 9932,
  "differentiate": 21032,
  "##elled": 21148,
  "##ᄋ": 29999,
  "historia": 19891,
  "sunday": 4465,
  "1879": 7449,
  "##谷": 30477,
  "configurations": 22354,
  "##cap": 17695,
  "pilgrims": 17992,
  "##54": 27009,
  "brightest": 26849,
  "ted": 6945,
  "##ly": 2135,
  "suns": 19352,
  "acacia": 24766,
  "preview": 19236,
  "999": 25897,
  "elector": 20374,
  "##ying": 14147,
  "examiner": 19684,
  "champion": 3410,
  "demonstrated": 7645,
  "equipped": 6055,
  "episodes": 4178,
  "jammed": 21601,
  "souls": 9293,
  "ashton": 13772,
  "enhancing": 20226,
  "masses": 11678,
  "kv": 24888,
  "dilapidated": 29283,
  "coupled": 11211,
  "seine": 16470,
  "##ologist": 8662,
  ">": 1028,
  "rubbing": 10137,
  "mclean": 17602,
  "[unused160]": 165,
  "##oy": 6977,
  "excuses": 21917,
  "marijuana": 16204,
  "##ξ": 29729,
  "##pers": 7347,
  "movement": 2929,
  "##chi": 5428,
  "wyoming": 10622,
  "opinion": 5448,
  "brake": 13428,
  "squeak": 29552,
  "sabha": 11200,
  "buena": 27493,
  "adams": 5922,
  "courts": 5434,
  "vincenzo": 24712,
  "##wife": 19993,
  "seymour": 13254,
  "##®": 29656,
  "[unused533]": 538,
  "bei": 21388,
  "##ki": 3211,
  "##wire": 20357,
  "##skin": 29334,
  "##rand": 13033,
  "dynamite": 21719,
  "pollock": 25218,
  "nominations": 9930,
  "return": 2709,
  "##ri": 3089,
  "##type": 13874,
  "universally": 21186,
  "##₃": 11622,
  "tingle": 25792,
  "ท": 1412,
  "[unused362]": 367,
  "disdain": 25134,
  "mats": 22281,
  "knocked": 6573,
  "alzheimer": 21901,
  "##rdes": 26371,
  "ং": 1346,
  "serves": 4240,
  "[unused590]": 595,
  "competitive": 6975,
  "negotiations": 7776,
  "obligation": 14987,
  "扌": 1859,
  "##ף": 29806,
  "flushing": 23519,
  "##osis": 12650,
  "finely": 22126,
  "surrey": 9948,
  "miscellaneous": 25408,
  "saline": 28413,
  "dragged": 7944,
  "pods": 26723,
  "##tia": 10711,
  "##tha": 8322,
  "1905": 5497,
  "courtyard": 10119,
  "##ingham": 16445,
  "enterprises": 9926,
  "nordic": 13649,
  "f": 1042,
  "momma": 23603,
  "traction": 16493,
  "mango": 24792,
  "harmful": 17631,
  "papa": 13008,
  "grind": 23088,
  "sidewalk": 11996,
  "hornets": 24855,
  "coverage": 6325,
  "##zaki": 18637,
  "collaborations": 17437,
  "##ically": 15004,
  "ensure": 5676,
  "cornerback": 26857,
  "fargo": 23054,
  "##hi": 4048,
  "capitalist": 19640,
  "frontier": 8880,
  "opponent": 7116,
  "ware": 16283,
  "‿": 1534,
  "transformation": 8651,
  "##ischen": 24488,
  "polish": 3907,
  "shouting": 11273,
  "apart": 4237,
  "1560": 29185,
  "ricardo": 13559,
  "₹": 1576,
  "marquess": 17391,
  "[unused220]": 225,
  "zombies": 14106,
  "saigon": 24001,
  "##pala": 19636,
  "beloved": 11419,
  "interactions": 10266,
  "phylogenetic": 23192,
  "##≈": 30133,
  "moment": 2617,
  "conical": 24750,
  "leafs": 21349,
  "photographer": 8088,
  "##rney": 27114,
  "absolute": 7619,
  "campus": 3721,
  "translated": 5421,
  "##ignant": 25593,
  "tight": 4389,
  "screening": 11326,
  "velvet": 10966,
  "standardization": 28648,
  "##uma": 12248,
  "pathways": 16910,
  "funeral": 6715,
  "##る": 30213,
  "[unused436]": 441,
  "goofy": 27243,
  "panted": 28149,
  "[unused295]": 300,
  "shore": 5370,
  "baton": 15302,
  "sacrament": 28958,
  "lively": 17133,
  "louie": 17438,
  "tonight": 3892,
  "delaney": 22101,
  "##李": 30403,
  "restrict": 21573,
  "##fighter": 20027,
  "earle": 23888,
  "caucus": 13965,
  "specimen": 11375,
  "neither": 4445,
  "consort": 13440,
  "##anial": 27532,
  "laszlo": 28226,
  "http": 8299,
  "sl": 22889,
  "bert": 14324,
  "ignition": 17446,
  "unprecedented": 15741,
  "sought": 4912,
  "puts": 8509,
  "bjp": 24954,
  "##fy": 12031,
  "##uding": 24539,
  "gina": 17508,
  "wren": 16255,
  "judgment": 8689,
  "inferior": 14092,
  "##rnet": 26573,
  "rearview": 28726,
  "spending": 5938,
  "assemblies": 17720,
  "##fed": 25031,
  "judgments": 26186,
  "supplying": 17731,
  "##º": 29662,
  "##andra": 29159,
  "##cal": 9289,
  "commissioner": 5849,
  "lion": 7006,
  "believing": 8929,
  "ruth": 7920,
  "twelve": 4376,
  "regime": 6939,
  "##eric": 22420,
  "likewise": 10655,
  "[unused478]": 483,
  "1977": 3355,
  "politely": 16954,
  "子": 1816,
  "maximus": 21692,
  "[unused519]": 524,
  "expressions": 11423,
  "##er": 2121,
  "celebrating": 12964,
  "##inates": 28184,
  "athletic": 5188,
  "rubber": 8903,
  "turkic": 22926,
  "exiled": 14146,
  "##city": 12972,
  "breadth": 25291,
  "pendant": 23152,
  "clerical": 23106,
  "harmless": 19741,
  "##fia": 22749,
  "musical": 3315,
  "fences": 21549,
  "annabelle": 24722,
  "[unused277]": 282,
  "pilasters": 26752,
  "##fles": 28331,
  "millie": 19561,
  "unconstitutional": 20454,
  "liability": 14000,
  "clarinet": 12089,
  "antiquity": 16433,
  "throttle": 24420,
  "##quest": 15500,
  "##sal": 12002,
  "robot": 8957,
  "because": 2138,
  "australia": 2660,
  "shandong": 25768,
  "houghton": 21234,
  "valid": 9398,
  "yan": 13619,
  "crises": 25332,
  "counter": 4675,
  "##ᵢ": 19109,
  "381": 29335,
  "greer": 25939,
  "meadows": 13524,
  "##osition": 19234,
  "fiercely": 16265,
  "duc": 26363,
  "reactor": 13308,
  "commuted": 26704,
  "##tling": 15073,
  "1853": 8933,
  "practicing": 12560,
  "##gation": 12540,
  "motorway": 13119,
  "legislature": 6372,
  "##ory": 10253,
  "range": 2846,
  "afc": 10511,
  "pictures": 4620,
  "##ours": 22957,
  "##糹": 30460,
  "eat": 4521,
  "cereal": 20943,
  "intensive": 11806,
  "wish": 4299,
  "cloudy": 24706,
  "emotions": 6699,
  "faction": 10233,
  "##ai": 4886,
  "incident": 5043,
  "withdrew": 6780,
  "stitch": 26035,
  "successes": 14152,
  "rides": 12271,
  "room": 2282,
  "thirst": 21810,
  "accounts": 6115,
  "colin": 6972,
  "package": 7427,
  "been": 2042,
  "##bbling": 15343,
  "poverty": 5635,
  "hysterical": 25614,
  "brackets": 19719,
  "frank": 3581,
  "##puram": 17809,
  "[unused905]": 910,
  "shaman": 23610,
  "ceded": 19705,
  "[unused661]": 666,
  "refusal": 13948,
  "##ther": 12399,
  "region": 2555,
  "##51": 22203,
  "palais": 22113,
  "##rds": 17811,
  "mail": 5653,
  "sinn": 26403,
  "foundations": 10100,
  "submarine": 6982,
  "presses": 14616,
  "[unused428]": 433,
  "remembered": 4622,
  "guitars": 7334,
  "##itz": 8838,
  "branched": 21648,
  "##བ": 29967,
  "1870": 6940,
  "combined": 4117,
  "andhra": 14065,
  "concludes": 14730,
  "worth": 4276,
  "aliens": 12114,
  "flickered": 15999,
  "christensen": 24189,
  "##39": 23499,
  "stats": 26319,
  "rochelle": 25649,
  "bro": 22953,
  "pockets": 10306,
  "[unused355]": 360,
  "ministerial": 18645,
  "internationale": 21339,
  "astonishment": 23819,
  "messina": 27270,
  "menu": 12183,
  "##お": 30176,
  "trailed": 11145,
  "conscription": 26329,
  "choreography": 16967,
  "bates": 11205,
  "##lke": 28143,
  "grover": 25242,
  "シ": 1706,
  "poznan": 18320,
  "##pole": 15049,
  "script": 5896,
  "cochin": 28982,
  "clumsy": 22902,
  "philippines": 5137,
  "cops": 10558,
  "rigged": 25216,
  "##achal": 24409,
  "##wave": 16535,
  "raid": 8118,
  "stolen": 7376,
  "internacional": 27607,
  "choi": 18151,
  "extinguished": 27705,
  "vowed": 18152,
  "##chon": 24561,
  "grasp": 10616,
  "##hei": 26036,
  "[unused714]": 719,
  "bullets": 10432,
  "##bler": 16213,
  "##non": 8540,
  "##cter": 21162,
  "202": 16798,
  "potion": 26722,
  "eve": 6574,
  "indonesia": 6239,
  "transactions": 11817,
  "halfway": 8576,
  "##hma": 22444,
  "aggressive": 9376,
  "damian": 19507,
  "brother": 2567,
  "##vies": 25929,
  "planners": 27155,
  "##ndi": 16089,
  "1911": 5184,
  "sore": 14699,
  "litter": 19070,
  "biased": 25352,
  "brahms": 28419,
  "fay": 23201,
  "bender": 25386,
  "[unused110]": 115,
  "lux": 28359,
  "municipal": 4546,
  "tbilisi": 22406,
  "##থ": 29899,
  "ى": 1299,
  "fungi": 15289,
  "puppy": 17022,
  "dealt": 9411,
  "andres": 15614,
  "liechtenstein": 26500,
  "##ein": 12377,
  "beacon": 14400,
  "snout": 17291,
  "into": 2046,
  "memphis": 9774,
  "onboard": 27120,
  "amino": 13096,
  "##cing": 6129,
  "##rk": 8024,
  "adler": 17969,
  "regulars": 24945,
  "geo": 20248,
  "tangle": 24453,
  "becky": 14407,
  "reopened": 11882,
  "lund": 21860,
  "moffat": 28528,
  "nurses": 11500,
  "county": 2221,
  "islands": 3470,
  "firth": 25138,
  "##ructured": 26134,
  "##lusion": 24117,
  "garnered": 13056,
  "##peration": 29487,
  "ル": 1733,
  "##week": 28075,
  "3": 1017,
  "juveniles": 25406,
  "localities": 19664,
  "say": 2360,
  "glove": 15913,
  "##duk": 28351,
  "captive": 12481,
  "[unused485]": 490,
  "sparkling": 16619,
  "horrific": 23512,
  "childbirth": 27162,
  "bark": 11286,
  "aachen": 29093,
  "billed": 14843,
  "mothers": 10756,
  "societies": 8384,
  "##para": 28689,
  "crossings": 20975,
  "preface": 18443,
  "inversion": 28527,
  "support": 2490,
  "aroused": 18391,
  "##year": 29100,
  "abolition": 15766,
  "hunted": 14682,
  "townsville": 27492,
  "bengals": 23227,
  "divided": 4055,
  "雄": 1974,
  "hyper": 23760,
  "av": 20704,
  "strides": 22215,
  "##bal": 10264,
  "maxi": 21510,
  "basel": 14040,
  "lagoon": 15825,
  "[unused305]": 310,
  "proceeding": 18207,
  "outpost": 21080,
  "domination": 17882,
  "wondered": 4999,
  "hove": 25215,
  "pressing": 7827,
  "telephone": 7026,
  "163": 17867,
  "achieve": 6162,
  "前": 1776,
  "institutional": 12148,
  "sharpe": 22147,
  "metric": 12046,
  "stabbed": 13263,
  "##xed": 19068,
  "##iah": 12215,
  "1960": 3624,
  "unveiled": 11521,
  "fighters": 7299,
  "display": 4653,
  "hygiene": 19548,
  "##eak": 25508,
  "installations": 14111,
  "disputes": 11936,
  "migrating": 28636,
  "orton": 25161,
  "processes": 6194,
  "##carriage": 21539,
  "leinster": 15684,
  "##oe": 8913,
  "symphonies": 29355,
  "praised": 5868,
  "formula": 5675,
  "tandem": 18231,
  "costello": 21015,
  "icons": 18407,
  "silvio": 28107,
  "enforce": 16306,
  "eyelids": 16544,
  "relevance": 21923,
  "1790": 13393,
  "clipped": 20144,
  "racism": 14398,
  "hurley": 25124,
  "[unused733]": 738,
  "varieties": 9903,
  "walt": 10598,
  "arrow": 8612,
  "ニ": 1716,
  "nut": 17490,
  "card": 4003,
  "sophia": 9665,
  "plainly": 24250,
  "164": 17943,
  "##ssi": 18719,
  "valued": 11126,
  "bce": 10705,
  "##島": 30359,
  "argyle": 26503,
  "##60": 16086,
  "fifty": 5595,
  "substantial": 6937,
  "seek": 6148,
  "[unused328]": 333,
  "haul": 14655,
  "##37": 24434,
  "क": 1315,
  "##ike": 17339,
  "ต": 1411,
  "coldly": 24745,
  "uv": 23068,
  "##buro": 23670,
  "maxim": 20446,
  "##aking": 15495,
  "waitress": 13877,
  "householder": 7536,
  "##wig": 16279,
  "scowl": 19981,
  "ma": 5003,
  "perform": 4685,
  "neighborhoods": 11681,
  "daylight": 11695,
  "nippon": 19364,
  "185": 15376,
  "flex": 23951,
  "implications": 13494,
  "##rricular": 21231,
  "ᄆ": 1459,
  "##空": 30456,
  "##jin": 14642,
  "west": 2225,
  "billy": 5006,
  "motor": 5013,
  "initiatives": 11107,
  "abuse": 6905,
  "era": 3690,
  "valleys": 12467,
  "friend": 2767,
  "differed": 19541,
  "##ington": 7853,
  "plum": 22088,
  "responsibility": 5368,
  "noodles": 27130,
  "##ded": 5732,
  "bern": 16595,
  "boating": 23639,
  "##nr": 16118,
  "exercises": 11110,
  "postponed": 14475,
  "worlds": 8484,
  "##lm": 13728,
  "1643": 25534,
  "≤": 1608,
  "him": 2032,
  "fate": 6580,
  "surprised": 4527,
  "helpful": 14044,
  "##場": 30332,
  "expelled": 10016,
  "commodity": 19502,
  "dropped": 3333,
  "matilda": 17981,
  "overthrow": 16857,
  "lying": 4688,
  "titan": 16537,
  "dowry": 29603,
  "##ط": 29828,
  "emerald": 14110,
  "pulp": 16016,
  "centenary": 17705,
  "information": 2592,
  "attends": 23933,
  "##tley": 18492,
  "##enter": 29110,
  "35": 3486,
  "bat": 7151,
  "steele": 12872,
  "cory": 18342,
  "brilliance": 28850,
  "ramos": 18882,
  "##taken": 25310,
  "minute": 3371,
  "##dek": 24463,
  "kant": 26044,
  "taxpayers": 26457,
  "##personal": 28823,
  "campground": 29144,
  "jakob": 19108,
  "waltz": 17569,
  "theorist": 24241,
  "san": 2624,
  "cautiously": 15151,
  "ɫ": 1120,
  "curran": 19649,
  "chatham": 16727,
  "charters": 23010,
  "##aged": 18655,
  "pushing": 6183,
  "giggled": 15889,
  "psychiatric": 13691,
  "##gon": 7446,
  "notices": 14444,
  "arresting": 28427,
  "interesting": 5875,
  "seahawks": 21390,
  "hapoel": 24208,
  "glances": 13021,
  "trash": 11669,
  "[unused697]": 702,
  "##lf": 10270,
  "norris": 15466,
  "served": 2366,
  "spectator": 21027,
  "loudly": 9928,
  "emerging": 8361,
  "greaves": 27808,
  "##hli": 27766,
  "aw": 22091,
  "1728": 26833,
  "progressed": 12506,
  "##acio": 21361,
  "caleb": 10185,
  "northwest": 4514,
  "carriages": 17744,
  "permits": 14245,
  "##path": 15069,
  "##isance": 28138,
  "##bone": 14417,
  "confront": 14323,
  "flames": 7311,
  "##due": 20041,
  "smithsonian": 15720,
  "##gua": 19696,
  "widening": 17973,
  "aaa": 13360,
  "inhibit": 26402,
  "administrators": 15631,
  "users": 5198,
  "barney": 15377,
  "racer": 14878,
  "mein": 24182,
  "##美": 30461,
  "##艹": 30465,
  "goddess": 7804,
  "blows": 13783,
  "bays": 13933,
  "minimize": 18478,
  "relaxing": 19613,
  "accomplish": 14570,
  "nucleus": 13502,
  "rats": 11432,
  "##idal": 16975,
  "triple": 6420,
  "##ine": 3170,
  "harmon": 25546,
  "seth": 6662,
  "francais": 22357,
  "##nik": 8238,
  "ি": 1379,
  "intel": 13420,
  "complexity": 11619,
  "kentucky": 5612,
  "tam": 17214,
  "##vio": 25500,
  "tallest": 13747,
  "countdown": 18144,
  "tracing": 16907,
  "##person": 27576,
  "crashed": 8007,
  "192": 17613,
  "expand": 7818,
  "bungalow": 27563,
  "##we": 8545,
  "宇": 1819,
  "1897": 6347,
  "forerunner": 23993,
  "##部": 30486,
  "belgium": 5706,
  "turnbull": 26439,
  "dutch": 3803,
  "খ": 1354,
  "deafening": 28840,
  "breakdown": 12554,
  "arrogant": 15818,
  "converted": 4991,
  "marquis": 13410,
  "registered": 5068,
  "1641": 25702,
  "patients": 5022,
  "post": 2695,
  "dresser": 16641,
  "cao": 12966,
  "##lau": 17298,
  "##till": 28345,
  "recycling": 17874,
  "##orted": 15613,
  "jimenez": 22790,
  "che": 18178,
  "van": 3158,
  "beaufort": 23622,
  "##bi": 5638,
  "atletico": 16132,
  "propose": 16599,
  "speed": 3177,
  "jericho": 17309,
  "melanie": 13286,
  "gabby": 27183,
  "piers": 16067,
  "##ragan": 28905,
  "##centric": 22461,
  "harald": 20966,
  "plasma": 12123,
  "advertisement": 15147,
  "socialists": 21633,
  "shoots": 11758,
  "##ignon": 24796,
  "jonas": 10680,
  "needs": 3791,
  "ceremonial": 12961,
  "##girl": 15239,
  "route": 2799,
  "1086": 28196,
  "##lage": 20679,
  "##そ": 30186,
  "number": 2193,
  "notre": 10289,
  "[unused677]": 682,
  "frustrating": 25198,
  "boundaries": 7372,
  "halted": 12705,
  "adhere": 25276,
  "shields": 11824,
  "francois": 8173,
  "fran": 23151,
  "##chenko": 25872,
  "biker": 28988,
  "[unused862]": 867,
  "theodore": 10117,
  "mmm": 25391,
  "rocco": 28167,
  "winnipeg": 11093,
  "cadet": 12738,
  "rochester": 10541,
  "##wehr": 27156,
  "compulsory": 14770,
  "ranges": 8483,
  "figure": 3275,
  "智": 1869,
  "disbelief": 12537,
  "roxy": 23682,
  "jasper": 14791,
  "hayes": 10192,
  "##uid": 21272,
  "endeavour": 26911,
  "stairway": 21952,
  "pleasure": 5165,
  "₅": 1552,
  "celaena": 29252,
  "bucks": 14189,
  "##ou": 7140,
  "##eering": 20550,
  "0": 1014,
  "conform": 23758,
  "bavaria": 11606,
  "educating": 25088,
  "љ": 1215,
  "rashid": 22080,
  "submerged": 13563,
  "##lves": 20899,
  "mia": 8764,
  "##pio": 22071,
  "##cas": 15671,
  "abbot": 11428,
  "inn": 7601,
  "ハ": 1718,
  "peeked": 18652,
  "smoking": 9422,
  "pained": 22295,
  "luckily": 15798,
  "##oured": 16777,
  "འ": 1433,
  "noelle": 22336,
  "wavelength": 19934,
  "sebastian": 6417,
  "barclay": 23724,
  "cu": 12731,
  "₄": 1551,
  "vested": 26003,
  "federally": 20892,
  "international": 2248,
  "##minate": 19269,
  "volumes": 6702,
  "cm": 4642,
  "##vision": 17084,
  "rosenberg": 21069,
  "operative": 12160,
  "mp": 6131,
  "files": 6764,
  "microscope": 24635,
  "exported": 15612,
  "##fest": 14081,
  "tucker": 9802,
  "##aga": 16098,
  "[unused662]": 667,
  "angus": 13682,
  "framework": 7705,
  "contribution": 6691,
  "pure": 5760,
  "##folding": 21508,
  "##xie": 16898,
  "creative": 5541,
  "chimneys": 28885,
  "##asco": 28187,
  "conflicts": 9755,
  "195": 17317,
  "oppression": 20489,
  "admissions": 20247,
  "constellation": 15300,
  "[unused964]": 969,
  "showcase": 13398,
  "communicating": 20888,
  "reciprocal": 28309,
  "hilarious": 26316,
  "##oris": 21239,
  "consolation": 24831,
  "towns": 4865,
  "rhetoric": 17871,
  "truce": 18415,
  "clearing": 8430,
  "ceo": 5766,
  "sexual": 4424,
  "letterman": 26593,
  "##akh": 27573,
  "spotted": 7282,
  "smuggling": 19535,
  "##₄": 17004,
  "earliest": 5700,
  "cheekbones": 27181,
  "punches": 17957,
  "outlaws": 23107,
  "##yre": 16363,
  "mouth": 2677,
  "prefer": 9544,
  "victim": 6778,
  "##eng": 13159,
  "gasp": 12008,
  "maids": 29229,
  "[unused293]": 298,
  "usaf": 18531,
  "absorbing": 20998,
  "riff": 24808,
  "##ials": 26340,
  "orchard": 15623,
  "##ita": 6590,
  "[unused197]": 202,
  "##∈": 30124,
  "terence": 22677,
  "former": 2280,
  "##zai": 25290,
  "logic": 7961,
  "liv": 22135,
  "caste": 14542,
  "welcoming": 18066,
  "##version": 27774,
  "##tidae": 21861,
  "padded": 20633,
  "cheer": 15138,
  "cyclists": 21912,
  "indochina": 27053,
  "¾": 1093,
  "elliott": 9899,
  "##rus": 7946,
  "shifted": 5429,
  "broadway": 5934,
  "##ₙ": 19110,
  "liege": 17766,
  "[unused330]": 335,
  "ha": 5292,
  "techno": 21416,
  "notions": 21951,
  "capitals": 15433,
  "authors": 6048,
  "ₚ": 1569,
  "granville": 24926,
  "mead": 19855,
  "versailles": 18346,
  "triangle": 9546,
  "affordable": 15184,
  "handle": 5047,
  "infinitely": 25773,
  "sinatra": 19643,
  "feared": 8615,
  "distributor": 16632,
  "forbid": 27206,
  "outfielder": 21033,
  "mayfield": 27224,
  "##ku": 5283,
  "joan": 7437,
  "embrace": 9979,
  "scriptures": 22481,
  "protective": 9474,
  "pollution": 10796,
  "servant": 7947,
  "statewide": 13486,
  "1603": 25625,
  "##£": 29646,
  "products": 3688,
  "≡": 1607,
  "smith": 3044,
  "[unused865]": 870,
  "protruding": 23868,
  "interrogation": 16871,
  "clicks": 29225,
  "shen": 21882,
  "##ney": 5420,
  "buckley": 17898,
  "ע": 1259,
  "[unused196]": 201,
  "stat": 28093,
  "xv": 15566,
  "observers": 14009,
  "tess": 15540,
  "dental": 11394,
  "武": 1889,
  "tor": 17153,
  "studied": 3273,
  "gills": 29468,
  "consume": 16678,
  "buddy": 8937,
  "roland": 8262,
  "greenish": 23753,
  "travelling": 8932,
  "dialogue": 7982,
  "##qing": 19784,
  "accessible": 7801,
  "greenwich": 13861,
  "ɯ": 1122,
  "unsuccessfully": 11551,
  "canucks": 26177,
  "fringe": 13548,
  "##hyllum": 27750,
  "interview": 4357,
  "irving": 12415,
  "##uri": 9496,
  "lingering": 15304,
  "##fighting": 22158,
  "gravely": 28070,
  "transforming": 17903,
  "##五": 30279,
  "suffix": 16809,
  "challenged": 8315,
  "京": 1755,
  "charities": 15430,
  "esa": 28776,
  "strand": 11226,
  "▪": 1618,
  "[unused680]": 685,
  "paisley": 23321,
  "tabloid": 24173,
  "backbone": 21505,
  "wanting": 5782,
  "visionary": 28036,
  "し": 1657,
  "weapons": 4255,
  "insider": 25297,
  "doorbell": 25422,
  "eagle": 6755,
  "pain": 3255,
  "radicals": 23618,
  "newbury": 29457,
  "ᅳ": 1481,
  "poetry": 4623,
  "##ral": 7941,
  "igor": 14661,
  "orson": 25026,
  "[unused349]": 354,
  "offences": 18421,
  "wendy": 12815,
  "affinity": 16730,
  "replacement": 6110,
  "##skaya": 23070,
  "##ece": 26005,
  "ミ": 1724,
  "belgrade": 10291,
  "jase": 18626,
  "shoe": 10818,
  "boxers": 18508,
  "care": 2729,
  "gala": 16122,
  "[unused265]": 270,
  "##ente": 15781,
  "swirl": 28693,
  "communist": 4750,
  "triad": 25355,
  "nun": 16634,
  "duo": 6829,
  "sank": 7569,
  "mixer": 23228,
  "jenna": 13504,
  "##iam": 25107,
  "handles": 16024,
  "described": 2649,
  "anastasia": 19447,
  "employs": 13495,
  "fairfield": 18986,
  "indonesian": 9003,
  "salamanca": 29608,
  "გ": 1440,
  "##cl": 20464,
  "joyce": 11830,
  "essen": 29032,
  "309": 25048,
  "club": 2252,
  "greasy": 26484,
  "1836": 10081,
  "membranes": 24972,
  "bp": 17531,
  "onward": 15834,
  "local": 2334,
  "[unused38]": 39,
  "smaller": 3760,
  "##《": 30165,
  "sip": 10668,
  "laws": 4277,
  "everett": 15160,
  "steep": 9561,
  "ferocious": 27863,
  "contiguous": 25177,
  "##nism": 28113,
  "batman": 8942,
  "drake": 7867,
  "sprayed": 25401,
  "pledge": 16393,
  "foremost": 16097,
  "monitored": 17785,
  "mfa": 26913,
  "ュ": 1729,
  "tricks": 12225,
  "weekend": 5353,
  "##ede": 14728,
  "bahrain": 15195,
  "furious": 9943,
  "ancestry": 11377,
  "nbl": 28013,
  "postdoctoral": 29272,
  "alessandro": 17956,
  "##ask": 19895,
  "80": 3770,
  "345": 23785,
  "surrounds": 20626,
  "的": 1916,
  "beetle": 7813,
  "v6": 25275,
  "bulge": 23708,
  "kills": 8563,
  "##lence": 22717,
  "sorry": 3374,
  "abby": 9460,
  "ticket": 7281,
  "apocalyptic": 27660,
  "crusader": 25237,
  "marty": 12578,
  "hermes": 24127,
  "elected": 2700,
  "##eres": 18702,
  "anti": 3424,
  "319": 26499,
  "approximately": 3155,
  "[unused786]": 791,
  "##ara": 5400,
  "became": 2150,
  "##ze": 4371,
  "prowess": 26120,
  "know": 2113,
  "archibald": 15917,
  "eyeing": 19285,
  "lgbt": 12010,
  "ள": 1393,
  "straining": 21366,
  "bennett": 8076,
  "##thed": 23816,
  "basket": 10810,
  "kashmir": 13329,
  "##aling": 21682,
  "amman": 25703,
  "[unused464]": 469,
  "ballistic": 19630,
  "forgiven": 24280,
  "ь": 1207,
  "physiology": 16127,
  "representing": 5052,
  "##meral": 28990,
  "dimensions": 9646,
  "grammar": 8035,
  "claim": 4366,
  "##rar": 19848,
  "reeve": 20726,
  "augustus": 11668,
  "##ook": 14659,
  "ulster": 11059,
  "[unused252]": 257,
  "anime": 8750,
  "boca": 22765,
  "acton": 28794,
  "##ල": 29942,
  "amongst": 5921,
  "1921": 4885,
  "lifetime": 6480,
  "warfare": 8309,
  "mbe": 20301,
  "telangana": 23764,
  "caution": 14046,
  "kim": 5035,
  "##otto": 23052,
  "toward": 2646,
  "ₙ": 1568,
  "lightning": 7407,
  "crambidae": 21585,
  "better": 2488,
  "lap": 5001,
  "chris": 3782,
  "[unused913]": 918,
  "wilson": 4267,
  "395": 24673,
  "somalia": 14717,
  "##qu": 28940,
  "boarded": 17383,
  "[unused154]": 159,
  "sink": 7752,
  "##rge": 20800,
  "##ك": 29835,
  "##ell": 5349,
  "americana": 25988,
  "##earing": 27242,
  "container": 11661,
  "harmonies": 28594,
  "patterned": 25336,
  "##ش": 29825,
  "lent": 15307,
  "crippled": 24433,
  "pretty": 3492,
  "39": 4464,
  "amos": 13744,
  "##uro": 10976,
  "[unused357]": 362,
  "idiots": 28781,
  "helen": 6330,
  "##bia": 11607,
  "faith": 4752,
  "##zon": 11597,
  "##lth": 24658,
  "##90": 21057,
  "marion": 10115,
  "1717": 27525,
  "prakash": 22233,
  "1813": 12169,
  "71": 6390,
  "regret": 9038,
  "sage": 10878,
  "##im": 5714,
  "localized": 22574,
  "vlad": 19163,
  "neutrality": 21083,
  "trouble": 4390,
  "glamour": 22439,
  "although": 2348,
  "builder": 12508,
  "lyric": 13677,
  "49": 4749,
  "sworn": 10741,
  "ambiguity": 27637,
  "alton": 26374,
  "tenant": 16713,
  "grading": 26886,
  "vs": 5443,
  "crossed": 4625,
  "dissatisfied": 25956,
  "moaned": 12557,
  "dispute": 7593,
  "##nes": 5267,
  "meade": 26501,
  "georgie": 20280,
  "##lewood": 26580,
  "bum": 26352,
  "##mins": 21266,
  "fighter": 4959,
  "boards": 7923,
  "1899": 6166,
  "ᄊ": 1462,
  "pardon": 14933,
  "jeffrey": 10799,
  "##区": 30308,
  "##ス": 30233,
  "untouched": 22154,
  "[unused886]": 891,
  "[unused43]": 44,
  "##会": 30289,
  "workplace": 16165,
  "[unused609]": 614,
  "faculty": 4513,
  "wilde": 18575,
  "confident": 9657,
  "prized": 25695,
  "##ホ": 30248,
  "obvious": 5793,
  "times": 2335,
  "##umi": 12717,
  "gap": 6578,
  "lives": 3268,
  "##made": 21565,
  "##hesis": 24124,
  "pleased": 7537,
  "##gger": 13327,
  "256": 17273,
  "frogs": 17582,
  "cheered": 25471,
  "jiangsu": 28091,
  "ந": 1386,
  "##aan": 14634,
  "inauguration": 17331,
  "lawsuit": 9870,
  "bikini": 20345,
  "amnesia": 29222,
  "century": 2301,
  "п": 1194,
  "##cha": 7507,
  "wendell": 24526,
  "fjord": 26158,
  "insurgents": 20541,
  "##lat": 20051,
  "quarrel": 26260,
  "agenda": 11376,
  "kidnapping": 15071,
  "fraudulent": 27105,
  "[unused91]": 92,
  "moran": 17866,
  "whaling": 23687,
  "[unused879]": 884,
  "dockyard": 24874,
  "affirmed": 19768,
  "wits": 25433,
  "##世": 30271,
  "##sight": 25807,
  "pieter": 23759,
  "##wives": 23744,
  "implementations": 24977,
  "verandah": 26153,
  "gospels": 24131,
  "jd": 26219,
  "##ishly": 19983,
  "##‑": 30049,
  "北": 1781,
  "vale": 10380,
  "anglican": 9437,
  "##bo": 5092,
  "[unused353]": 358,
  "centralized": 22493,
  "ceremonies": 10912,
  "##ard": 4232,
  "idaho": 9795,
  "complimented": 27175,
  "##mount": 20048,
  "lyricist": 19489,
  "perennial": 14638,
  "##dies": 18389,
  "hazard": 15559,
  "##low": 8261,
  "rowland": 20539,
  "gestured": 11574,
  "quantity": 11712,
  "tacoma": 22954,
  "##gged": 15567,
  "fires": 8769,
  "giving": 3228,
  "freeway": 10846,
  "diocese": 5801,
  "penitentiary": 29569,
  "##zman": 24340,
  "powered": 6113,
  "##cious": 18436,
  "##cio": 9793,
  "eccentric": 18080,
  "refers": 5218,
  "doses": 21656,
  "w": 1059,
  "backs": 10457,
  "##kins": 14322,
  "urges": 23876,
  "promoted": 3755,
  "attorney": 4905,
  "broadcasting": 5062,
  "businessmen": 17353,
  "cruising": 22206,
  "benefits": 6666,
  "ga": 11721,
  "outdated": 25963,
  "1658": 28944,
  "mandal": 24373,
  "outraged": 23558,
  "##₂": 8229,
  "bombing": 8647,
  "andrei": 18125,
  "colon": 16844,
  "culminating": 16979,
  "96": 5986,
  "ང": 1427,
  "cryptic": 26483,
  "examining": 12843,
  "warn": 11582,
  "gus": 12670,
  "##shire": 7430,
  "##⇒": 30119,
  "forecast": 19939,
  "lodges": 26767,
  "##tine": 10196,
  "spirited": 24462,
  "inclusion": 10502,
  "johnstone": 24160,
  "confluence": 13693,
  "generations": 8213,
  "omaha": 12864,
  "##w": 2860,
  "##lander": 22691,
  "subsequently": 3525,
  "regent": 11315,
  "jug": 26536,
  "claremont": 23716,
  "##sack": 25607,
  "insulin": 22597,
  "##nate": 12556,
  "##iana": 11410,
  "ø": 1100,
  "chronological": 23472,
  "ing": 13749,
  "##rada": 28510,
  "お": 1650,
  "馬": 1980,
  "[unused59]": 60,
  "##may": 27871,
  "[unused224]": 229,
  "clusters": 12906,
  "hacked": 28719,
  "coordinated": 14206,
  "sprung": 22057,
  "vivid": 14954,
  "am": 2572,
  "星": 1866,
  "##itarian": 25691,
  "stayed": 4370,
  "##itt": 12474,
  "mint": 12927,
  "mapping": 12375,
  "eclipse": 13232,
  "fence": 8638,
  "holding": 3173,
  "mcconnell": 28514,
  "570": 24902,
  "##cted": 10985,
  "##nne": 10087,
  "ל": 1253,
  "##lized": 28931,
  "pune": 16920,
  "##bles": 13510,
  "##mba": 11201,
  "nicola": 17388,
  "##ju": 9103,
  "##glass": 15621,
  "waterway": 23668,
  "lending": 18435,
  "summoned": 11908,
  "abd": 19935,
  "treaties": 16013,
  "garion": 12523,
  "299": 25926,
  "maria": 3814,
  "heresy": 28354,
  "[unused308]": 313,
  "declares": 18806,
  "comics": 5888,
  "##rcus": 29006,
  "affect": 7461,
  "painters": 12499,
  "ʻ": 1145,
  "fantasia": 29203,
  "pyramid": 11918,
  "##islaus": 25678,
  "provision": 9347,
  "provoke": 27895,
  "geese": 28519,
  "90s": 17233,
  "gujarat": 14288,
  "maple": 11035,
  "residency": 14079,
  "##hel": 16001,
  "stables": 16232,
  "demonstrations": 13616,
  "drives": 9297,
  "rhineland": 21640,
  "saskatchewan": 10068,
  "stamped": 20834,
  "山": 1831,
  "ralph": 6798,
  "[unused358]": 363,
  "grasping": 20854,
  "initiation": 17890,
  "blazers": 28513,
  "address": 4769,
  "peshawar": 28777,
  "forever": 5091,
  "supplied": 8127,
  "prescription": 20422,
  "utmost": 27917,
  "dail": 26181,
  "swapped": 29176,
  "fetch": 18584,
  "gdp": 14230,
  "brewery": 12161,
  "##と": 30192,
  "1702": 26776,
  "alfonso": 13591,
  "1999": 2639,
  "duffy": 17971,
  "eras": 28500,
  "sanchez": 10568,
  "##а": 10260,
  "manifestation": 24491,
  "hm": 20287,
  "dame": 8214,
  "bayer": 26367,
  "tho": 27793,
  "guard": 3457,
  "guitar": 2858,
  "evacuated": 13377,
  "principals": 27928,
  "ruling": 6996,
  "nursery": 13640,
  "belief": 6772,
  "dancer": 8033,
  "limerick": 15679,
  "##flies": 24019,
  "topographic": 24254,
  "##ntine": 26730,
  "##tad": 17713,
  "nope": 16780,
  "diseases": 7870,
  "arcadia": 25178,
  "western": 2530,
  "philanthropic": 25321,
  "utter": 14395,
  "ɨ": 1118,
  "technology": 2974,
  "##fully": 7699,
  "derrick": 18928,
  "wall": 2813,
  "cows": 17188,
  "pakistani": 9889,
  "irrigation": 12442,
  "##sari": 22740,
  "##cic": 19053,
  "captures": 19566,
  "12th": 5940,
  "richards": 9712,
  "carved": 7844,
  "##light": 7138,
  "follow": 3582,
  "withdrawing": 21779,
  "##nah": 15272,
  "⊕": 1612,
  "storylines": 22628,
  "##stick": 21354,
  "legendary": 8987,
  "##cum": 24894,
  "mir": 14719,
  "pole": 6536,
  "maurice": 7994,
  "##口": 30314,
  "adequately": 23613,
  "formidable": 18085,
  "tall": 4206,
  "##more": 5974,
  "##リ": 30258,
  "result": 2765,
  "theme": 4323,
  "a2": 22441,
  "imprisonment": 10219,
  "[unused577]": 582,
  "##kari": 20224,
  "furnished": 19851,
  "richardson": 9482,
  "comprising": 9605,
  "medium": 5396,
  "gaulle": 28724,
  "boarding": 9405,
  "pens": 25636,
  "194": 19955,
  "fragrance": 24980,
  "chilly": 24222,
  "[unused901]": 906,
  "1680": 24621,
  "##uring": 12228,
  "hydrogen": 9732,
  "[unused125]": 130,
  "entry": 4443,
  "jurgen": 23171,
  "nellie": 25365,
  "reptiles": 20978,
  "swayed": 20122,
  "discarded": 15105,
  "##mina": 22311,
  "##ope": 17635,
  "katy": 17870,
  "richard": 2957,
  "bee": 10506,
  "assure": 14306,
  "mainstream": 7731,
  "##eka": 19025,
  "await": 26751,
  "yeomanry": 26883,
  "totally": 6135,
  "wow": 10166,
  "ups": 11139,
  "reviewed": 8182,
  "heinz": 17655,
  "devotion": 13347,
  "worried": 5191,
  "##founded": 21001,
  "darius": 14861,
  "suffolk": 12291,
  "royalties": 25335,
  "arcs": 29137,
  "assassin": 12025,
  "enlightenment": 16724,
  "##lah": 14431,
  "photography": 5855,
  "narrow": 4867,
  "ˢ": 1152,
  "wu": 8814,
  "wal": 24547,
  "slammed": 7549,
  "faust": 24021,
  "famous": 3297,
  "shane": 8683,
  "1913": 5124,
  "##ology": 6779,
  "modernism": 27254,
  "[unused390]": 395,
  "rhys": 13919,
  "earnest": 17300,
  "##ough": 10593,
  "supposed": 4011,
  "##ut": 4904,
  "charity": 5952,
  "quota": 20563,
  "##31": 21486,
  "##pic": 24330,
  "schubert": 24645,
  "##nus": 10182,
  "example": 2742,
  "eliminated": 5892,
  "hum": 14910,
  "##ggles": 24989,
  "##rell": 16230,
  "diamonds": 11719,
  "dramatically": 12099,
  "wood": 3536,
  "[unused799]": 804,
  "united": 2142,
  "hope": 3246,
  "henry": 2888,
  "##national": 25434,
  "regiment": 3483,
  "60s": 20341,
  "##lby": 14510,
  "explore": 8849,
  "##erton": 20995,
  "##my": 8029,
  "va": 12436,
  "drama": 3689,
  "bushes": 14568,
  "##†": 30061,
  "plaques": 28487,
  "##jo": 5558,
  "##ッ": 30237,
  "##52": 25746,
  "##rong": 17583,
  "sensible": 21082,
  "##gil": 20142,
  "loses": 12386,
  "##レ": 30260,
  "ahl": 18347,
  "julie": 7628,
  "jax": 13118,
  "gaza": 14474,
  "##iography": 26535,
  "[unused520]": 525,
  "calcutta": 13419,
  "negative": 4997,
  "composite": 12490,
  "demographics": 28321,
  "joshua": 9122,
  "cult": 8754,
  "aging": 12520,
  "profit": 5618,
  "[unused5]": 6,
  "advance": 5083,
  "ə": 1114,
  "walking": 3788,
  "##rist": 15061,
  "rue": 13413,
  "gems": 20296,
  "pius": 14363,
  "chop": 24494,
  "corp": 13058,
  "azerbaijani": 18325,
  "tongues": 19677,
  "adding": 5815,
  "ლ": 1447,
  "specialist": 8325,
  "sylvie": 26009,
  "lacrosse": 13488,
  "summons": 24814,
  "pokemon": 20421,
  "##寺": 30353,
  "##ᄇ": 29996,
  "gnu": 27004,
  "124": 13412,
  "amalgamation": 21968,
  "##frid": 27439,
  "isaiah": 18850,
  "mobility": 12969,
  "##kot": 23342,
  "separates": 18600,
  "communicate": 10639,
  "##ei": 7416,
  "jc": 29175,
  "fda": 17473,
  "mall": 6670,
  "drink": 4392,
  "##ila": 11733,
  "elevated": 8319,
  "mosquito": 22529,
  "##pina": 26787,
  "³": 1083,
  "scandals": 29609,
  "[unused781]": 786,
  "gustav": 13430,
  "©": 1075,
  "evil": 4763,
  "##yse": 23274,
  "calculating": 20177,
  "－": 1990,
  "gag": 18201,
  "190": 11827,
  "aggression": 14974,
  "above": 2682,
  "creators": 17277,
  "cello": 10145,
  "##ture": 11244,
  "##sl": 14540,
  "defenses": 13345,
  "rowe": 20538,
  "[unused813]": 818,
  "efficiently": 18228,
  "sort": 4066,
  "nietzsche": 28898,
  "malcolm": 8861,
  "accuse": 26960,
  "submitted": 7864,
  "nos": 16839,
  "hangar": 18284,
  "differential": 11658,
  "yourselves": 25035,
  "around": 2105,
  "wise": 7968,
  "rested": 8614,
  "undone": 25757,
  "bull": 7087,
  "liver": 11290,
  "ceramics": 17314,
  "cook": 5660,
  "##onus": 24891,
  "273": 25371,
  "##ech": 15937,
  "mathematics": 5597,
  "line": 2240,
  "youths": 19634,
  "justified": 15123,
  "responsive": 26651,
  "river": 2314,
  "囗": 1797,
  "##mur": 20136,
  "inhabitants": 4864,
  "##isms": 22556,
  "losses": 6409,
  "##on": 2239,
  "graveyard": 16685,
  "##hoe": 14490,
  "peak": 4672,
  "hamas": 22129,
  "honda": 11990,
  "explosions": 18217,
  "defenders": 12534,
  "carlo": 9758,
  "minnesota": 5135,
  "##ख": 29852,
  "##aday": 28039,
  "wylie": 29152,
  "[unused891]": 896,
  "efforts": 4073,
  "##clops": 28659,
  "[unused691]": 696,
  "harvest": 11203,
  "zur": 17924,
  "##ua": 6692,
  "##ru": 6820,
  "finest": 10418,
  "42nd": 21373,
  "validity": 16406,
  "shadow": 5192,
  "##ud": 6784,
  "seattle": 5862,
  "unfortunate": 15140,
  "microsoft": 7513,
  "tile": 14090,
  "followed": 2628,
  "英": 1941,
  "oriented": 8048,
  "flash": 5956,
  "attendant": 16742,
  "italics": 19408,
  "repair": 7192,
  "blah": 27984,
  "methods": 4725,
  "punjabi": 17498,
  "##anus": 20849,
  "[unused632]": 637,
  "docking": 25776,
  "hurst": 26405,
  "franks": 21310,
  "donate": 21357,
  "mor": 22822,
  "bought": 4149,
  "preserve": 7969,
  "eventual": 9523,
  "face": 2227,
  "ferdinand": 9684,
  "diverted": 18356,
  "athletics": 6482,
  "thematic": 23539,
  "doctors": 7435,
  "changing": 5278,
  "aimee": 23551,
  "triumphant": 25251,
  "holder": 9111,
  "brutally": 23197,
  "slaves": 7179,
  "vast": 6565,
  "proxy": 24540,
  "sax": 19656,
  "##ph": 8458,
  "435": 24125,
  "maison": 26420,
  "##asia": 15396,
  "alice": 5650,
  "perspectives": 15251,
  "license": 6105,
  "person": 2711,
  "kite": 20497,
  "doi": 9193,
  "check": 4638,
  "nets": 16996,
  "く": 1653,
  "setup": 16437,
  "airbus": 20901,
  "##cased": 28969,
  "##sop": 28793,
  "[unused728]": 733,
  "portals": 27388,
  "##gging": 12588,
  "##stra": 20528,
  "depiction": 15921,
  "fc": 4429,
  "rhodes": 10588,
  "1654": 27445,
  "billings": 26124,
  "ph": 6887,
  "##sville": 9337,
  "tibet": 13319,
  "segment": 6903,
  "russell": 5735,
  "athenian": 26956,
  "salmon": 11840,
  "raion": 24235,
  "shelly": 28360,
  "##dini": 26039,
  "##escence": 28964,
  "provost": 18523,
  "##act": 18908,
  "flyers": 16217,
  "erasmus": 26809,
  "##berto": 21201,
  "transitions": 22166,
  "##bourg": 20431,
  "##lp": 14277,
  "follower": 22399,
  "##भ": 29866,
  "manages": 9020,
  "##ues": 15808,
  "defined": 4225,
  "pillow": 10005,
  "deity": 12764,
  "airborne": 10519,
  "sadie": 21330,
  "mclaughlin": 23720,
  "recipes": 19328,
  "1792": 13414,
  "mai": 14736,
  "peaking": 13015,
  "federal": 2976,
  "##ikh": 28209,
  "flipping": 18497,
  "志": 1851,
  "##ser": 8043,
  "maverick": 27187,
  "principle": 6958,
  "ratings": 8599,
  "medicare": 27615,
  "informing": 21672,
  "heated": 9685,
  "madeleine": 19324,
  "newly": 4397,
  "infectious": 16514,
  "possibilities": 12020,
  "dewey": 20309,
  "winger": 16072,
  "single": 2309,
  "all": 2035,
  "##yya": 19903,
  "[unused55]": 56,
  "critique": 16218,
  "contributes": 16605,
  "##jer": 20009,
  "viet": 19710,
  "serpent": 16517,
  "thoughtful": 16465,
  "д": 1184,
  "offering": 5378,
  "spence": 22186,
  "foot": 3329,
  "incompatible": 25876,
  "##高": 30507,
  "##rov": 12298,
  "raymond": 7638,
  "colleen": 28385,
  "terre": 25170,
  "tommy": 6838,
  "pitchfork": 22355,
  "societal": 23382,
  "frenchman": 26529,
  "webber": 19861,
  "highways": 10292,
  "aegean": 27198,
  "##ola": 6030,
  "lough": 29504,
  "miles": 2661,
  "engaged": 5117,
  "1820s": 28504,
  "xp": 26726,
  "##ტ": 29989,
  "##enity": 20693,
  "drums": 3846,
  "##mana": 24805,
  "store": 3573,
  "boring": 11771,
  "expulsion": 18272,
  "tinged": 22683,
  "##ப": 29924,
  "warehouses": 23319,
  "##mite": 23419,
  "archaeologist": 18821,
  "##uria": 27703,
  "tensed": 15225,
  "nightly": 22390,
  "multi": 4800,
  "initiative": 6349,
  "schwartz": 16756,
  "165": 13913,
  "##崎": 30360,
  "apparently": 4593,
  "##scoe": 28147,
  "affiliate": 8727,
  "proprietary": 16350,
  "furry": 28662,
  "swarm": 21708,
  "affecting": 12473,
  "勝": 1780,
  "elvis": 12280,
  "##}": 29642,
  "##∩": 30131,
  "##yria": 20379,
  "reduced": 4359,
  "commercials": 12698,
  "linguist": 22978,
  "boot": 9573,
  "hurled": 24025,
  "tucking": 25056,
  "640": 19714,
  "##phone": 9864,
  "poem": 5961,
  "speeding": 21485,
  "cathy": 18305,
  "##oop": 18589,
  "[unused917]": 922,
  "titles": 4486,
  "480": 17295,
  "olympia": 17096,
  "safely": 9689,
  "trolley": 20820,
  "##ras": 8180,
  "stamp": 11359,
  "belly": 7579,
  "enter": 4607,
  "##erre": 28849,
  "priory": 14284,
  "##iring": 24771,
  "limiting": 14879,
  "successor": 6332,
  "[unused253]": 258,
  "gladstone": 21765,
  "ambulance": 10771,
  "lodge": 7410,
  "pose": 13382,
  "alpha": 6541,
  "##imov": 25299,
  "##isk": 20573,
  "[unused933]": 938,
  "tugs": 29306,
  "tensor": 23435,
  "positive": 3893,
  "maynard": 22130,
  "romney": 19615,
  "meyrick": 15228,
  "dex": 20647,
  "dom": 14383,
  "surgical": 11707,
  "oakley": 28876,
  "##nie": 8034,
  "##tiv": 29068,
  "##ural": 11137,
  "notation": 14869,
  "dumped": 14019,
  "##bos": 15853,
  "[unused496]": 501,
  "##ds": 5104,
  "comfortably": 18579,
  "##cured": 19405,
  "comune": 21130,
  "##eous": 14769,
  "vision": 4432,
  "assistant": 3353,
  "[unused259]": 264,
  "botswana": 19414,
  "##ぬ": 30195,
  "ratified": 17673,
  "quakers": 28301,
  "appearing": 6037,
  "johor": 25268,
  "scripts": 14546,
  "pc": 7473,
  "tyson": 19356,
  "disadvantage": 20502,
  "slater": 17916,
  "road": 2346,
  "isis": 18301,
  "crap": 10231,
  "iconic": 14430,
  "boom": 8797,
  "suffered": 4265,
  "1924": 4814,
  "baronetcy": 25071,
  "antarctica": 12615,
  "staggered": 14648,
  "[unused64]": 65,
  "jae": 22770,
  "track": 2650,
  "declared": 4161,
  "asset": 11412,
  "cabins": 20321,
  "anthropologist": 21571,
  "##jm": 24703,
  "ultrasound": 27312,
  "##sible": 19307,
  "##ir": 4313,
  "rectory": 24606,
  "aryan": 26030,
  "##stadt": 21543,
  "内": 1773,
  "##codes": 23237,
  "ᵗ": 1505,
  "biomass": 28148,
  "##wash": 28556,
  "[unused411]": 416,
  "mitsubishi": 19695,
  "##え": 30175,
  "meadow": 13244,
  "##lic": 10415,
  "coasts": 20266,
  "persecution": 14522,
  "[unused863]": 868,
  "##ject": 20614,
  "wilbur": 26151,
  "##break": 23890,
  "witnessed": 9741,
  "ɾ": 1126,
  "##ـ": 29832,
  "oil": 3514,
  "##yes": 23147,
  "170": 10894,
  "mini": 7163,
  "shortly": 3859,
  "##inations": 22045,
  "warships": 15964,
  "н": 1192,
  "actors": 5889,
  "haley": 16624,
  "composition": 5512,
  "spitting": 24307,
  "erwin": 22209,
  "lumpur": 17761,
  "##llo": 7174,
  "soil": 5800,
  "skin": 3096,
  "amar": 23204,
  "08": 5511,
  "imperative": 23934,
  "underlying": 10318,
  "hammond": 11309,
  "hound": 19598,
  "crash": 5823,
  "misunderstanding": 24216,
  "bunk": 25277,
  "vickers": 18571,
  "stereo": 12991,
  "advice": 6040,
  "drifting": 15013,
  "yearbook": 24803,
  "mexico": 3290,
  "strengthened": 13949,
  "pursuit": 8463,
  "romero": 18290,
  "far": 2521,
  "vans": 21994,
  "उ": 1313,
  "interceptions": 18387,
  "##idae": 6096,
  "comply": 14037,
  "[unused872]": 877,
  "containers": 16143,
  "summers": 10945,
  "impetus": 27961,
  "##tious": 20771,
  "goa": 15244,
  "prelate": 26595,
  "manage": 6133,
  "##dberg": 25190,
  "##isto": 20483,
  "counselor": 17220,
  "derivative": 13819,
  "engaging": 11973,
  "sensed": 10596,
  "achievements": 10106,
  "frozen": 7708,
  "treats": 18452,
  "##our": 8162,
  "unemployed": 18787,
  "##finger": 20349,
  "purpose": 3800,
  "belgian": 6995,
  "asha": 24595,
  "antrim": 24142,
  "##omi": 20936,
  "shocked": 7135,
  "—": 1517,
  "fountain": 9545,
  "deploy": 21296,
  "looking": 2559,
  "reforming": 29455,
  "carving": 18441,
  "ト": 1714,
  "##秋": 30455,
  "depth": 5995,
  "unionist": 17104,
  "whoa": 23281,
  "his": 2010,
  "五": 1753,
  "[unused604]": 609,
  "buchanan": 14349,
  "##bee": 11306,
  "melville": 20154,
  "##ccus": 27631,
  "order": 2344,
  "mp3": 23378,
  "directors": 5501,
  "socrates": 26772,
  "ᵖ": 1504,
  "€": 1574,
  "mala": 28935,
  "sonata": 14681,
  "inside": 2503,
  "[unused467]": 472,
  "##xx": 20348,
  "bo": 8945,
  "129": 14378,
  "[unused256]": 261,
  "t": 1056,
  "roses": 10529,
  "amara": 28599,
  "zach": 12397,
  "handwriting": 24149,
  "html": 16129,
  "punt": 18975,
  "corbin": 24003,
  "edited": 5493,
  "destroys": 20735,
  "leeds": 7873,
  "abyss": 22159,
  "##orno": 26295,
  "joins": 9794,
  "baptist": 7550,
  "calhoun": 22982,
  "1961": 3777,
  "[unused889]": 894,
  "frs": 25188,
  "[unused580]": 585,
  "##pot": 11008,
  "tracy": 10555,
  "experiencing": 13417,
  "##vite": 25217,
  "incorporation": 16935,
  "islam": 7025,
  "more": 2062,
  "passengers": 5467,
  "karen": 8129,
  "absently": 21284,
  "build": 3857,
  "spy": 8645,
  "polls": 14592,
  "##tropical": 25528,
  "##金": 30490,
  "house": 2160,
  "##ton": 2669,
  "##∞": 30128,
  "lateral": 11457,
  "tribe": 5917,
  "madras": 12993,
  "italia": 13052,
  "prisoner": 7267,
  "##ւ": 29785,
  "staying": 6595,
  "bridgeport": 27986,
  "frowning": 14587,
  "bernard": 6795,
  "gangster": 20067,
  "ability": 3754,
  "##poulos": 24662,
  "glue": 25238,
  "scraped": 20378,
  "kazakhstan": 11769,
  "kan": 22827,
  "##ふ": 30200,
  "sierra": 7838,
  "congressional": 7740,
  "phonetic": 26664,
  "shootout": 18297,
  "phoebe": 18188,
  "mika": 27857,
  "monarchy": 12078,
  "roast": 25043,
  "##rmed": 29540,
  "sports": 2998,
  "reactions": 9597,
  "wreckage": 21056,
  "consistently": 10862,
  "trail": 4446,
  "[unused721]": 726,
  "instructions": 8128,
  "breaks": 7807,
  "kimberly": 23729,
  "clever": 12266,
  "disgusting": 19424,
  "rocking": 14934,
  "error": 7561,
  "architectural": 6549,
  "osaka": 13000,
  "salman": 28542,
  "una": 14477,
  "[unused538]": 543,
  "translucent": 22897,
  "fourteen": 7426,
  "##ancy": 11656,
  "##⁷": 30076,
  "coincidentally": 27542,
  "without": 2302,
  "1917": 4585,
  "chemistry": 6370,
  "dismounted": 29580,
  "frederic": 15296,
  "himself": 2370,
  "sphere": 10336,
  "jakarta": 14426,
  "involvement": 6624,
  "dull": 10634,
  "plenty": 7564,
  "clive": 14675,
  "rubin": 20524,
  "middleton": 17756,
  "hull": 6738,
  "sv": 17917,
  "cardinal": 7185,
  "limb": 15291,
  "[unused856]": 861,
  "quintet": 18109,
  "##ba": 3676,
  "স": 1376,
  "mining": 5471,
  "finally": 2633,
  "##vish": 24968,
  "dal": 17488,
  "##erty": 15010,
  "peer": 8152,
  "blacks": 10823,
  "triggering": 29170,
  "recruits": 15024,
  "strengthening": 16003,
  "##laus": 28128,
  "acclaim": 10761,
  "argentina": 5619,
  "makes": 3084,
  "##onal": 16026,
  "inconsistent": 20316,
  "expo": 16258,
  "supplement": 12448,
  "practised": 20439,
  "satin": 19412,
  "surrendered": 10795,
  "##by": 3762,
  "##xes": 20156,
  "disk": 9785,
  "pin": 9231,
  "##宿": 30352,
  "##say": 24322,
  "burnley": 23028,
  "##nable": 22966,
  "mummy": 22788,
  "mormon": 15111,
  "54": 5139,
  "##⟩": 30156,
  "##ₛ": 30098,
  "postal": 10690,
  "tips": 10247,
  "altered": 8776,
  "remixed": 17574,
  "naturally": 8100,
  "avenge": 24896,
  "ignorant": 21591,
  "naacp": 26155,
  "##rz": 15378,
  "wilder": 18463,
  "handler": 28213,
  "firstly": 15847,
  "pathogen": 26835,
  "fur": 6519,
  "ze": 27838,
  "##vance": 21789,
  "1889": 6478,
  "database": 7809,
  "spans": 14798,
  "ramps": 24943,
  "crafted": 19275,
  "feng": 19004,
  "##wley": 20609,
  "trevor": 8672,
  "tempted": 16312,
  "##mine": 11233,
  "dent": 21418,
  "uci": 14504,
  "turquoise": 28653,
  "occupied": 4548,
  "1771": 20708,
  "##won": 19291,
  "induce": 19653,
  "[unused211]": 216,
  "ե": 1223,
  "##ை": 29935,
  "##shin": 17426,
  "scandinavia": 20612,
  "oilers": 19778,
  "johns": 11545,
  "##rrigan": 28706,
  "mechanic": 15893,
  "tingling": 23690,
  "[unused969]": 974,
  "ז": 1247,
  "participate": 5589,
  "[unused665]": 670,
  "dependence": 18642,
  "habits": 14243,
  "##ण": 29858,
  "synth": 24203,
  "##ess": 7971,
  "inequality": 16440,
  "dispatch": 18365,
  "##sable": 19150,
  "biographer": 17121,
  "likened": 28834,
  "holes": 8198,
  "##河": 30425,
  "quarry": 12907,
  "信": 1767,
  "motion": 4367,
  "malay": 12605,
  "deaths": 6677,
  "workshops": 9656,
  "espn": 10978,
  "voss": 24878,
  "1909": 5556,
  "1642": 24061,
  "ج": 1275,
  "##fish": 7529,
  "1918": 4271,
  "forewings": 13211,
  "baha": 13253,
  "outrageous": 25506,
  "secrets": 7800,
  "gora": 26967,
  "assets": 7045,
  "/": 1013,
  "comprise": 15821,
  "granddaughter": 12787,
  "1890s": 13678,
  "westwood": 21730,
  "enamel": 29484,
  "bordeaux": 16384,
  "relegated": 7049,
  "[unused512]": 517,
  "commendation": 23039,
  "cosmetics": 25381,
  "recommendations": 11433,
  "screw": 11224,
  "atp": 12649,
  "reorganisation": 24934,
  "[unused279]": 284,
  "##iche": 17322,
  "air": 2250,
  "hayden": 13872,
  "indicated": 5393,
  "terrorists": 15554,
  "welsh": 6124,
  "flows": 6223,
  "knocks": 21145,
  "reece": 24227,
  "pubs": 23598,
  "popular": 2759,
  "laundering": 28289,
  "nobody": 6343,
  "clarify": 25037,
  "combination": 5257,
  "1932": 4673,
  "bird": 4743,
  "improves": 24840,
  "cuba": 7394,
  "colourful": 26102,
  "##avi": 18891,
  "fabio": 25616,
  "ashley": 9321,
  "hideous": 22293,
  "eroded": 23300,
  "jelly": 20919,
  "unlocked": 14058,
  "##hine": 14014,
  "expose": 14451,
  "##aa": 11057,
  "discover": 7523,
  "205": 16327,
  "##hedral": 27310,
  "ufo": 24321,
  "х": 1200,
  "##rdy": 17460,
  "##ao": 7113,
  "##list": 9863,
  "postwar": 20013,
  "[unused433]": 438,
  "##uppe": 29547,
  "twitching": 25402,
  "ob": 27885,
  "ismail": 19214,
  "##wice": 23425,
  "organist": 16397,
  "copied": 15826,
  "æ": 1097,
  "explain": 4863,
  "survivors": 8643,
  "[unused86]": 87,
  "trains": 4499,
  "##plane": 11751,
  "val": 11748,
  "##√": 30127,
  "yuan": 11237,
  "##テ": 30239,
  "apparel": 26278,
  "##tative": 27453,
  "vibration": 17880,
  "##inated": 15833,
  "classify": 26268,
  "bathurst": 21897,
  "whitehall": 28361,
  "wright": 6119,
  "[unused542]": 547,
  "communities": 4279,
  "patrick": 4754,
  "andrey": 29219,
  "baja": 19497,
  "[unused819]": 824,
  "choir": 6596,
  "wire": 7318,
  "europeans": 13481,
  "##ث": 29818,
  "exhaustion": 15575,
  "latest": 6745,
  "##lman": 12624,
  "maguire": 26196,
  "pointe": 26119,
  "##ured": 12165,
  "crystals": 14438,
  "recommended": 6749,
  "skirt": 9764,
  "commemorate": 13415,
  "##uta": 13210,
  "pitched": 8219,
  "bond": 5416,
  "analogous": 19639,
  "effective": 4621,
  "panchayat": 20079,
  "sous": 27411,
  "quick": 4248,
  "bs": 18667,
  "obe": 15578,
  "hanging": 5689,
  "faulty": 28927,
  "linebacker": 15674,
  "rb": 21144,
  "anatolia": 23747,
  "font": 15489,
  "##α": 14608,
  "theoretically": 22634,
  "tallinn": 21169,
  "derivation": 29280,
  "clouds": 8044,
  "buy": 4965,
  "rutgers": 18607,
  "##亻": 30283,
  "traveling": 7118,
  "##esian": 25253,
  "paternal": 15112,
  "bethlehem": 19360,
  "vinnie": 24214,
  "gold": 2751,
  "ancient": 3418,
  "researches": 27338,
  "germain": 19192,
  "vastly": 24821,
  "##東": 30405,
  "rome": 4199,
  "mcintyre": 24564,
  "##over": 7840,
  "undertaken": 10607,
  "individually": 14258,
  "vh1": 26365,
  "31": 2861,
  "hamilton": 5226,
  "biologist": 21477,
  "chasing": 11777,
  "門": 1968,
  "franklin": 5951,
  "brighter": 16176,
  "1916": 4947,
  "unfortunately": 6854,
  "dec": 11703,
  "strengths": 20828,
  "1661": 24046,
  "dante": 9649,
  "##quin": 12519,
  "unmarked": 25779,
  "carly": 18431,
  "coronation": 12773,
  "##分": 30301,
  "gem": 17070,
  "debuts": 26740,
  "grins": 20237,
  "jian": 29214,
  "tampa": 9925,
  "eliminating": 15349,
  "keating": 25865,
  "predecessor": 8646,
  "systems": 3001,
  "plague": 11629,
  "mercer": 13081,
  "medal": 3101,
  "540": 20263,
  "estadio": 14143,
  "1818": 12094,
  "observer": 9718,
  "##uo": 19098,
  "inches": 5282,
  "abandoning": 19816,
  "pixels": 27725,
  "muffled": 15783,
  "##yas": 16303,
  "##00": 8889,
  "missy": 25019,
  "ce": 8292,
  "kenneth": 8856,
  "emphasized": 13155,
  "sarah": 4532,
  "outputs": 27852,
  "##has": 14949,
  "encouraging": 11434,
  "##biology": 21685,
  "ea": 19413,
  "absence": 6438,
  "willy": 16172,
  "legislatures": 27977,
  "smiling": 5629,
  "structured": 14336,
  "cookies": 16324,
  "confronts": 17628,
  "consecration": 24730,
  "seville": 18983,
  "##ג": 29790,
  "westminster": 9434,
  "granted": 4379,
  "surrounded": 5129,
  "##ique": 7413,
  "membrane": 10804,
  "templar": 27850,
  "shards": 23327,
  "rays": 9938,
  "following": 2206,
  "bartlett": 20081,
  "##rdan": 26992,
  "transcription": 14193,
  "fake": 8275,
  "##stown": 13731,
  "relying": 18345,
  "##ices": 23522,
  "hawthorne": 23440,
  "##rger": 25858,
  "robert": 2728,
  "save": 3828,
  "regained": 11842,
  "acknowledging": 21894,
  "850": 15678,
  "tal": 21368,
  "[unused187]": 192,
  "vatican": 12111,
  "ella": 11713,
  "rebellion": 7417,
  "##主": 30273,
  "underway": 14128,
  "someplace": 24956,
  "thankfully": 16047,
  "sinai": 20837,
  "verbs": 16025,
  "slashed": 23587,
  "eponymous": 15248,
  "##rling": 22036,
  "instead": 2612,
  "spring": 3500,
  "thessaloniki": 23162,
  "น": 1413,
  "##rud": 28121,
  "[unused81]": 82,
  "stamford": 22469,
  "enthusiastically": 24935,
  "elgin": 23792,
  "fis": 27424,
  "politicians": 8801,
  "vladimir": 8748,
  "##aea": 21996,
  "leiden": 20329,
  "circumstances": 6214,
  "hodge": 23148,
  "noise": 5005,
  "##trix": 29184,
  "densely": 19441,
  "workforce": 14877,
  "excavations": 14018,
  "regions": 4655,
  "[unused247]": 252,
  "drive": 3298,
  "pumps": 15856,
  "cinema": 5988,
  "tara": 10225,
  "[unused620]": 625,
  "landmark": 8637,
  "naive": 15743,
  "birthday": 5798,
  "cheeks": 6029,
  "##some": 14045,
  "javanese": 27344,
  "thanksgiving": 15060,
  "folder": 19622,
  "bros": 10243,
  "disclosed": 21362,
  "##ack": 8684,
  "tariff": 23234,
  "##hini": 20535,
  "abolished": 8961,
  "mouthful": 28462,
  "albuquerque": 19334,
  "uc": 15384,
  "bradley": 8981,
  "reassured": 26350,
  "chieftain": 26625,
  "diplomatic": 8041,
  "[unused116]": 121,
  "##gold": 21270,
  "elton": 19127,
  "sedan": 15134,
  "paler": 24489,
  "honor": 3932,
  "bonfire": 28698,
  "##asian": 24145,
  "##el": 2884,
  "mole": 16709,
  "opined": 26084,
  "commodore": 12957,
  "lashes": 16008,
  "fiba": 13651,
  "challenge": 4119,
  "lobster": 27940,
  "kemp": 20441,
  "dillon": 14602,
  "traders": 13066,
  "##idium": 28742,
  "##צ": 29809,
  "batter": 23801,
  "come": 2272,
  "giorgio": 17697,
  "replicate": 28024,
  "worked": 2499,
  "amplitude": 22261,
  "animator": 25132,
  "artisans": 26818,
  "johnston": 10773,
  "[unused756]": 761,
  "marian": 14042,
  "##$": 29615,
  "cr": 13675,
  "cart": 11122,
  "moist": 11052,
  "indicators": 20390,
  "accountability": 17842,
  "angrily": 14136,
  "dub": 12931,
  "foreigners": 15040,
  "##カ": 30226,
  "bugs": 12883,
  "deposed": 18298,
  "[unused868]": 873,
  "gravel": 11127,
  "目": 1918,
  "averaged": 11398,
  "ferrari": 13632,
  "cats": 8870,
  "compositions": 9265,
  "##sun": 19729,
  "borrowed": 11780,
  "pipe": 8667,
  "commemorated": 19131,
  "concentrations": 14061,
  "চ": 1356,
  "carnage": 27450,
  "##von": 17789,
  "intro": 17174,
  "swings": 18755,
  "introducing": 10449,
  "distrust": 29245,
  "coat": 5435,
  "##ⱼ": 30157,
  "##tania": 21013,
  "##ctic": 13306,
  "##bron": 21337,
  "genetically": 19345,
  "inscribed": 14551,
  "superficial": 23105,
  "threats": 8767,
  "govern": 21208,
  "colonial": 5336,
  "##birds": 12887,
  "prosperous": 18241,
  "lobbying": 19670,
  "1920": 4444,
  "##hetic": 20086,
  "##щ": 29754,
  "flexed": 24244,
  "flux": 19251,
  "livelihood": 24585,
  "touched": 5028,
  "among": 2426,
  "konrad": 22958,
  "1724": 26423,
  "settles": 27221,
  "pulling": 4815,
  "slit": 18036,
  "accidentally": 9554,
  "##oko": 16366,
  "ᅴ": 1482,
  "##adi": 17190,
  "taunting": 29442,
  "##պ": 29780,
  "##発": 30440,
  "##ovic": 9142,
  "##usa": 10383,
  "situation": 3663,
  "prospect": 9824,
  "宮": 1824,
  "tu": 10722,
  "wales": 3575,
  "strip": 6167,
  "##uting": 20807,
  "blouse": 18149,
  "nottinghamshire": 20126,
  "mapped": 17715,
  "rockets": 12496,
  "rahman": 14364,
  "tennis": 5093,
  "qualifier": 10981,
  "##tted": 16190,
  "during": 2076,
  "sharp": 4629,
  "billion": 4551,
  "leading": 2877,
  "shine": 12342,
  "csa": 27804,
  "analyst": 12941,
  "ap": 9706,
  "canvas": 10683,
  "##sef": 20106,
  "hardly": 6684,
  "lawson": 14577,
  "springs": 6076,
  "referring": 7727,
  "##lington": 18722,
  "mystic": 17477,
  "woolf": 29572,
  "tell": 2425,
  "advancement": 12607,
  "reckon": 29072,
  "warp": 24136,
  "##ʋ": 29699,
  "carolyn": 15611,
  "constabulary": 23791,
  "sentiments": 23541,
  "##onic": 12356,
  "notion": 9366,
  "bot": 28516,
  "shri": 14880,
  "sited": 28603,
  "dazzling": 28190,
  "kick": 5926,
  "##xin": 20303,
  "[unused109]": 114,
  "サ": 1705,
  "adventure": 6172,
  "exploitation": 14427,
  "peaks": 11373,
  "##33": 22394,
  "inspections": 29589,
  "dil": 29454,
  "landfall": 21042,
  "metre": 7924,
  "rankin": 25772,
  "administered": 8564,
  "eyes": 2159,
  "##enting": 26951,
  "##ooped": 20671,
  "protect": 4047,
  "memorandum": 20336,
  "strapped": 18019,
  "fries": 22201,
  "jealousy": 14225,
  "##print": 16550,
  "##eal": 15879,
  "programming": 4730,
  "[unused521]": 526,
  "##ment": 3672,
  "resides": 11665,
  "howard": 4922,
  "nirvana": 26530,
  "everton": 18022,
  "ashe": 13402,
  "recognizing": 14622,
  "draws": 9891,
  "berger": 16758,
  "frightening": 17115,
  "party": 2283,
  "visibly": 19397,
  "labeling": 28847,
  "similarly": 6660,
  "coal": 5317,
  "sampling": 16227,
  "joy": 6569,
  "beaver": 13570,
  "carmen": 11425,
  "della": 8611,
  "conference": 3034,
  "sanford": 21153,
  "north": 2167,
  "epoch": 25492,
  "namesake": 17283,
  "speedy": 26203,
  "islamabad": 26905,
  "[unused550]": 555,
  "refrain": 20703,
  "approval": 6226,
  "##ite": 4221,
  "##ہ": 29845,
  "samples": 8168,
  "ceilings": 21098,
  "outcomes": 13105,
  "ballots": 17069,
  "communication": 4807,
  "400": 4278,
  "cincinnati": 7797,
  "trembling": 10226,
  "##lved": 26832,
  "ec": 14925,
  "spontaneous": 17630,
  "##ass": 12054,
  "embarrassing": 16436,
  "##manship": 21530,
  "woods": 5249,
  "presidents": 11274,
  "symmetry": 14991,
  "protesters": 13337,
  "dimitri": 15953,
  "##na": 2532,
  "ashford": 26545,
  "towel": 10257,
  "reinforcement": 23895,
  "cover": 3104,
  "stalker": 23883,
  "ours": 14635,
  "pursued": 9505,
  "washed": 8871,
  "[unused416]": 421,
  "selfish": 14337,
  "ethiopia": 11154,
  "welterweight": 20882,
  "authorization": 20104,
  "##zzled": 17269,
  "mls": 16287,
  "analytic": 23521,
  "whom": 3183,
  "cosmopolitan": 24686,
  "hooded": 21592,
  "329": 29567,
  "##ado": 9365,
  "1901": 5775,
  "##jar": 16084,
  "narrower": 22546,
  "bacterial": 17341,
  "##col": 25778,
  "[unused518]": 523,
  "naturalist": 19176,
  "chew": 21271,
  "radios": 22229,
  "##bular": 28808,
  "pseudonym": 13881,
  "br": 7987,
  "jaguars": 24017,
  "workout": 27090,
  "[unused132]": 137,
  "taylor": 4202,
  "dolores": 21544,
  "johan": 13093,
  "educational": 4547,
  "adjusted": 10426,
  "dominate": 16083,
  "[unused170]": 175,
  "prophecy": 14951,
  "asia": 4021,
  "list": 2862,
  "##ರ": 29937,
  "burgundy": 18383,
  "spokesperson": 15974,
  "ski": 8301,
  "assume": 7868,
  "##chee": 25923,
  "grassroots": 23299,
  "ruled": 5451,
  "rains": 15811,
  "differences": 5966,
  "humidity": 18213,
  "www": 7479,
  "myself": 2870,
  "##quette": 29416,
  "hacking": 23707,
  "##iii": 28954,
  "⊗": 1613,
  "counseling": 17041,
  "mariana": 22097,
  "gu": 19739,
  "yer": 20416,
  "久": 1748,
  "magazine": 2932,
  "flashed": 8373,
  "transmitter": 11659,
  "laurence": 10883,
  "song": 2299,
  "warlock": 28861,
  "content": 4180,
  "virginity": 26970,
  "nearly": 3053,
  "##dis": 10521,
  "initial": 3988,
  "limp": 14401,
  "##ran": 5521,
  "sumner": 23922,
  "[unused976]": 981,
  "##ffen": 18032,
  "vanity": 18736,
  "sud": 19219,
  "ahmed": 10208,
  "rain": 4542,
  "military": 2510,
  "homage": 14822,
  "praying": 14488,
  "gather": 8587,
  "ns": 24978,
  "##zz": 13213,
  "america": 2637,
  "hunters": 9624,
  "##urance": 25863,
  "coop": 21859,
  "blanket": 8768,
  "entertainment": 4024,
  "abilities": 7590,
  "130": 7558,
  "mill": 4971,
  "rook": 28620,
  "deals": 9144,
  "##რ": 29987,
  "hired": 5086,
  "directive": 16449,
  "funny": 6057,
  "anticipation": 11162,
  "bobby": 6173,
  "radiating": 23229,
  "foxes": 24623,
  "##oro": 14604,
  "ས": 1436,
  "nelly": 29498,
  "theta": 23963,
  "bust": 13950,
  "##tized": 23355,
  "ass": 4632,
  "[unused366]": 371,
  "##ham": 3511,
  "patrolling": 24248,
  "##新": 30388,
  "hutton": 20408,
  "latvia": 12429,
  "spelled": 11479,
  "##etz": 26327,
  "aden": 16298,
  "egypt": 5279,
  "marked": 4417,
  "distribute": 16062,
  "brotherhood": 12865,
  "prof": 11268,
  "##ن": 15915,
  "jungle": 8894,
  "medallion": 22541,
  "senate": 4001,
  "21": 2538,
  "##ads": 19303,
  "##ecure": 29150,
  "substances": 13978,
  "polynomial": 17505,
  "boredom": 29556,
  "discrimination": 9147,
  "175": 12862,
  "turks": 12896,
  "organizations": 4411,
  "reinstated": 18671,
  "metadata": 27425,
  "##bella": 21700,
  "programmers": 28547,
  "[unused134]": 139,
  "tyrol": 27193,
  "##dor": 7983,
  "hardin": 27522,
  "wilkinson": 16237,
  "resorts": 16511,
  "attorneys": 16214,
  "##gau": 20420,
  "covering": 5266,
  "[unused894]": 899,
  "elm": 17709,
  "concession": 16427,
  "apex": 13450,
  "general": 2236,
  "austin": 5899,
  "blanca": 27538,
  "reissue": 17173,
  "cohen": 9946,
  "rodrigo": 18943,
[...]
